{
  "token_to_id": {
    "<pad>": 0,
    "<unk>": 1,
    "<bos>": 2,
    "<eos>": 3,
    "<byte_00>": 4,
    "<byte_01>": 5,
    "<byte_02>": 6,
    "<byte_03>": 7,
    "<byte_04>": 8,
    "<byte_05>": 9,
    "<byte_06>": 10,
    "<byte_07>": 11,
    "<byte_08>": 12,
    "<byte_09>": 13,
    "<byte_0a>": 14,
    "<byte_0b>": 15,
    "<byte_0c>": 16,
    "<byte_0d>": 17,
    "<byte_0e>": 18,
    "<byte_0f>": 19,
    "<byte_10>": 20,
    "<byte_11>": 21,
    "<byte_12>": 22,
    "<byte_13>": 23,
    "<byte_14>": 24,
    "<byte_15>": 25,
    "<byte_16>": 26,
    "<byte_17>": 27,
    "<byte_18>": 28,
    "<byte_19>": 29,
    "<byte_1a>": 30,
    "<byte_1b>": 31,
    "<byte_1c>": 32,
    "<byte_1d>": 33,
    "<byte_1e>": 34,
    "<byte_1f>": 35,
    "<byte_20>": 36,
    "<byte_21>": 37,
    "<byte_22>": 38,
    "<byte_23>": 39,
    "<byte_24>": 40,
    "<byte_25>": 41,
    "<byte_26>": 42,
    "<byte_27>": 43,
    "<byte_28>": 44,
    "<byte_29>": 45,
    "<byte_2a>": 46,
    "<byte_2b>": 47,
    "<byte_2c>": 48,
    "<byte_2d>": 49,
    "<byte_2e>": 50,
    "<byte_2f>": 51,
    "<byte_30>": 52,
    "<byte_31>": 53,
    "<byte_32>": 54,
    "<byte_33>": 55,
    "<byte_34>": 56,
    "<byte_35>": 57,
    "<byte_36>": 58,
    "<byte_37>": 59,
    "<byte_38>": 60,
    "<byte_39>": 61,
    "<byte_3a>": 62,
    "<byte_3b>": 63,
    "<byte_3c>": 64,
    "<byte_3d>": 65,
    "<byte_3e>": 66,
    "<byte_3f>": 67,
    "<byte_40>": 68,
    "<byte_41>": 69,
    "<byte_42>": 70,
    "<byte_43>": 71,
    "<byte_44>": 72,
    "<byte_45>": 73,
    "<byte_46>": 74,
    "<byte_47>": 75,
    "<byte_48>": 76,
    "<byte_49>": 77,
    "<byte_4a>": 78,
    "<byte_4b>": 79,
    "<byte_4c>": 80,
    "<byte_4d>": 81,
    "<byte_4e>": 82,
    "<byte_4f>": 83,
    "<byte_50>": 84,
    "<byte_51>": 85,
    "<byte_52>": 86,
    "<byte_53>": 87,
    "<byte_54>": 88,
    "<byte_55>": 89,
    "<byte_56>": 90,
    "<byte_57>": 91,
    "<byte_58>": 92,
    "<byte_59>": 93,
    "<byte_5a>": 94,
    "<byte_5b>": 95,
    "<byte_5c>": 96,
    "<byte_5d>": 97,
    "<byte_5e>": 98,
    "<byte_5f>": 99,
    "<byte_60>": 100,
    "<byte_61>": 101,
    "<byte_62>": 102,
    "<byte_63>": 103,
    "<byte_64>": 104,
    "<byte_65>": 105,
    "<byte_66>": 106,
    "<byte_67>": 107,
    "<byte_68>": 108,
    "<byte_69>": 109,
    "<byte_6a>": 110,
    "<byte_6b>": 111,
    "<byte_6c>": 112,
    "<byte_6d>": 113,
    "<byte_6e>": 114,
    "<byte_6f>": 115,
    "<byte_70>": 116,
    "<byte_71>": 117,
    "<byte_72>": 118,
    "<byte_73>": 119,
    "<byte_74>": 120,
    "<byte_75>": 121,
    "<byte_76>": 122,
    "<byte_77>": 123,
    "<byte_78>": 124,
    "<byte_79>": 125,
    "<byte_7a>": 126,
    "<byte_7b>": 127,
    "<byte_7c>": 128,
    "<byte_7d>": 129,
    "<byte_7e>": 130,
    "<byte_7f>": 131,
    "<byte_80>": 132,
    "<byte_81>": 133,
    "<byte_82>": 134,
    "<byte_83>": 135,
    "<byte_84>": 136,
    "<byte_85>": 137,
    "<byte_86>": 138,
    "<byte_87>": 139,
    "<byte_88>": 140,
    "<byte_89>": 141,
    "<byte_8a>": 142,
    "<byte_8b>": 143,
    "<byte_8c>": 144,
    "<byte_8d>": 145,
    "<byte_8e>": 146,
    "<byte_8f>": 147,
    "<byte_90>": 148,
    "<byte_91>": 149,
    "<byte_92>": 150,
    "<byte_93>": 151,
    "<byte_94>": 152,
    "<byte_95>": 153,
    "<byte_96>": 154,
    "<byte_97>": 155,
    "<byte_98>": 156,
    "<byte_99>": 157,
    "<byte_9a>": 158,
    "<byte_9b>": 159,
    "<byte_9c>": 160,
    "<byte_9d>": 161,
    "<byte_9e>": 162,
    "<byte_9f>": 163,
    "<byte_a0>": 164,
    "<byte_a1>": 165,
    "<byte_a2>": 166,
    "<byte_a3>": 167,
    "<byte_a4>": 168,
    "<byte_a5>": 169,
    "<byte_a6>": 170,
    "<byte_a7>": 171,
    "<byte_a8>": 172,
    "<byte_a9>": 173,
    "<byte_aa>": 174,
    "<byte_ab>": 175,
    "<byte_ac>": 176,
    "<byte_ad>": 177,
    "<byte_ae>": 178,
    "<byte_af>": 179,
    "<byte_b0>": 180,
    "<byte_b1>": 181,
    "<byte_b2>": 182,
    "<byte_b3>": 183,
    "<byte_b4>": 184,
    "<byte_b5>": 185,
    "<byte_b6>": 186,
    "<byte_b7>": 187,
    "<byte_b8>": 188,
    "<byte_b9>": 189,
    "<byte_ba>": 190,
    "<byte_bb>": 191,
    "<byte_bc>": 192,
    "<byte_bd>": 193,
    "<byte_be>": 194,
    "<byte_bf>": 195,
    "<byte_c0>": 196,
    "<byte_c1>": 197,
    "<byte_c2>": 198,
    "<byte_c3>": 199,
    "<byte_c4>": 200,
    "<byte_c5>": 201,
    "<byte_c6>": 202,
    "<byte_c7>": 203,
    "<byte_c8>": 204,
    "<byte_c9>": 205,
    "<byte_ca>": 206,
    "<byte_cb>": 207,
    "<byte_cc>": 208,
    "<byte_cd>": 209,
    "<byte_ce>": 210,
    "<byte_cf>": 211,
    "<byte_d0>": 212,
    "<byte_d1>": 213,
    "<byte_d2>": 214,
    "<byte_d3>": 215,
    "<byte_d4>": 216,
    "<byte_d5>": 217,
    "<byte_d6>": 218,
    "<byte_d7>": 219,
    "<byte_d8>": 220,
    "<byte_d9>": 221,
    "<byte_da>": 222,
    "<byte_db>": 223,
    "<byte_dc>": 224,
    "<byte_dd>": 225,
    "<byte_de>": 226,
    "<byte_df>": 227,
    "<byte_e0>": 228,
    "<byte_e1>": 229,
    "<byte_e2>": 230,
    "<byte_e3>": 231,
    "<byte_e4>": 232,
    "<byte_e5>": 233,
    "<byte_e6>": 234,
    "<byte_e7>": 235,
    "<byte_e8>": 236,
    "<byte_e9>": 237,
    "<byte_ea>": 238,
    "<byte_eb>": 239,
    "<byte_ec>": 240,
    "<byte_ed>": 241,
    "<byte_ee>": 242,
    "<byte_ef>": 243,
    "<byte_f0>": 244,
    "<byte_f1>": 245,
    "<byte_f2>": 246,
    "<byte_f3>": 247,
    "<byte_f4>": 248,
    "<byte_f5>": 249,
    "<byte_f6>": 250,
    "<byte_f7>": 251,
    "<byte_f8>": 252,
    "<byte_f9>": 253,
    "<byte_fa>": 254,
    "<byte_fb>": 255,
    "<byte_fc>": 256,
    "<byte_fd>": 257,
    "<byte_fe>": 258,
    "<byte_ff>": 259,
    "ऀ": 260,
    "ँ": 261,
    "ं": 262,
    "ः": 263,
    "ऄ": 264,
    "अ": 265,
    "आ": 266,
    "इ": 267,
    "ई": 268,
    "उ": 269,
    "ऊ": 270,
    "ऋ": 271,
    "ऌ": 272,
    "ऍ": 273,
    "ऎ": 274,
    "ए": 275,
    "ऐ": 276,
    "ऑ": 277,
    "ऒ": 278,
    "ओ": 279,
    "औ": 280,
    "क": 281,
    "ख": 282,
    "ग": 283,
    "घ": 284,
    "ङ": 285,
    "च": 286,
    "छ": 287,
    "ज": 288,
    "झ": 289,
    "ञ": 290,
    "ट": 291,
    "ठ": 292,
    "ड": 293,
    "ढ": 294,
    "ण": 295,
    "त": 296,
    "थ": 297,
    "द": 298,
    "ध": 299,
    "न": 300,
    "ऩ": 301,
    "प": 302,
    "फ": 303,
    "ब": 304,
    "भ": 305,
    "म": 306,
    "य": 307,
    "र": 308,
    "ऱ": 309,
    "ल": 310,
    "ळ": 311,
    "ऴ": 312,
    "व": 313,
    "श": 314,
    "ष": 315,
    "स": 316,
    "ह": 317,
    "ऺ": 318,
    "ऻ": 319,
    "़": 320,
    "ऽ": 321,
    "ा": 322,
    "ि": 323,
    "ी": 324,
    "ु": 325,
    "ू": 326,
    "ृ": 327,
    "ॄ": 328,
    "ॅ": 329,
    "ॆ": 330,
    "े": 331,
    "ै": 332,
    "ॉ": 333,
    "ॊ": 334,
    "ो": 335,
    "ौ": 336,
    "्": 337,
    "ॎ": 338,
    "ॏ": 339,
    "ॐ": 340,
    "॑": 341,
    "॒": 342,
    "॓": 343,
    "॔": 344,
    "ॕ": 345,
    "ॖ": 346,
    "ॗ": 347,
    "क़": 348,
    "ख़": 349,
    "ग़": 350,
    "ज़": 351,
    "ड़": 352,
    "ढ़": 353,
    "फ़": 354,
    "य़": 355,
    "ॠ": 356,
    "ॡ": 357,
    "ॢ": 358,
    "ॣ": 359,
    "।": 360,
    "॥": 361,
    "०": 362,
    "१": 363,
    "२": 364,
    "३": 365,
    "४": 366,
    "५": 367,
    "६": 368,
    "७": 369,
    "८": 370,
    "९": 371,
    "॰": 372,
    "ॱ": 373,
    "ॲ": 374,
    "ॳ": 375,
    "ॴ": 376,
    "ॵ": 377,
    "ॶ": 378,
    "ॷ": 379,
    "ॸ": 380,
    "ॹ": 381,
    "ॺ": 382,
    "ॻ": 383,
    "ॼ": 384,
    "ॽ": 385,
    "ॾ": 386,
    "ॿ": 387,
    "꣠": 388,
    "꣡": 389,
    "꣢": 390,
    "꣣": 391,
    "꣤": 392,
    "꣥": 393,
    "꣦": 394,
    "꣧": 395,
    "꣨": 396,
    "꣩": 397,
    "꣪": 398,
    "꣫": 399,
    "꣬": 400,
    "꣭": 401,
    "꣮": 402,
    "꣯": 403,
    "꣰": 404,
    "꣱": 405,
    "ꣲ": 406,
    "ꣳ": 407,
    "ꣴ": 408,
    "ꣵ": 409,
    "ꣶ": 410,
    "ꣷ": 411,
    "꣸": 412,
    "꣹": 413,
    "꣺": 414,
    "ꣻ": 415,
    "꣼": 416,
    "ꣽ": 417,
    "ꣾ": 418,
    "ꣿ": 419,
    "᳐": 420,
    "᳑": 421,
    "᳒": 422,
    "᳓": 423,
    "᳔": 424,
    "᳕": 425,
    "᳖": 426,
    "᳗": 427,
    "᳘": 428,
    "᳙": 429,
    "᳚": 430,
    "᳛": 431,
    "᳜": 432,
    "᳝": 433,
    "᳞": 434,
    "᳟": 435,
    "᳠": 436,
    "᳡": 437,
    "᳢": 438,
    "᳣": 439,
    "᳤": 440,
    "᳥": 441,
    "᳦": 442,
    "᳧": 443,
    "᳨": 444,
    "ᳩ": 445,
    "ᳪ": 446,
    "ᳫ": 447,
    "ᳬ": 448,
    "᳭": 449,
    "ᳮ": 450,
    "ᳯ": 451,
    "ᳰ": 452,
    "ᳱ": 453,
    "ᳲ": 454,
    "ᳳ": 455,
    "᳴": 456,
    "ᳵ": 457,
    "ᳶ": 458,
    "᳷": 459,
    "᳸": 460,
    "᳹": 461,
    "ᳺ": 462,
    "᳻": 463,
    "᳼": 464,
    "᳽": 465,
    "᳾": 466,
    "᳿": 467,
    " ": 468,
    "!": 469,
    "\"": 470,
    "#": 471,
    "$": 472,
    "%": 473,
    "&": 474,
    "'": 475,
    "(": 476,
    ")": 477,
    "*": 478,
    "+": 479,
    ",": 480,
    "-": 481,
    ".": 482,
    "/": 483,
    "0": 484,
    "1": 485,
    "2": 486,
    "3": 487,
    "4": 488,
    "5": 489,
    "6": 490,
    "7": 491,
    "8": 492,
    "9": 493,
    ":": 494,
    ";": 495,
    "<": 496,
    "=": 497,
    ">": 498,
    "?": 499,
    "@": 500,
    "A": 501,
    "B": 502,
    "C": 503,
    "D": 504,
    "E": 505,
    "F": 506,
    "G": 507,
    "H": 508,
    "I": 509,
    "J": 510,
    "K": 511,
    "L": 512,
    "M": 513,
    "N": 514,
    "O": 515,
    "P": 516,
    "Q": 517,
    "R": 518,
    "S": 519,
    "T": 520,
    "U": 521,
    "V": 522,
    "W": 523,
    "X": 524,
    "Y": 525,
    "Z": 526,
    "[": 527,
    "\\": 528,
    "]": 529,
    "^": 530,
    "_": 531,
    "`": 532,
    "a": 533,
    "b": 534,
    "c": 535,
    "d": 536,
    "e": 537,
    "f": 538,
    "g": 539,
    "h": 540,
    "i": 541,
    "j": 542,
    "k": 543,
    "l": 544,
    "m": 545,
    "n": 546,
    "o": 547,
    "p": 548,
    "q": 549,
    "r": 550,
    "s": 551,
    "t": 552,
    "u": 553,
    "v": 554,
    "w": 555,
    "x": 556,
    "y": 557,
    "z": 558,
    "{": 559,
    "|": 560,
    "}": 561,
    "~": 562,
    " t": 563,
    " a": 564,
    "in": 565,
    "re": 566,
    "he": 567,
    "on": 568,
    "at": 569,
    "st": 570,
    "er": 571,
    "ou": 572,
    "nd": 573,
    " c": 574,
    "an": 575,
    "or": 576,
    " the": 577,
    " w": 578,
    "ing": 579,
    "it": 580,
    " and": 581,
    "en": 582,
    " s": 583,
    "es": 584,
    "al": 585,
    " f": 586,
    "ion": 587,
    " d": 588,
    "ar": 589,
    " p": 590,
    " to": 591,
    " m": 592,
    "ct": 593,
    "ul": 594,
    " o": 595,
    " b": 596,
    "le": 597,
    " in": 598,
    "is": 599,
    "**": 600,
    " th": 601,
    "ic": 602,
    "ed": 603,
    " I": 604,
    "om": 605,
    "ent": 606,
    " of": 607,
    " A": 608,
    " re": 609,
    "em": 610,
    " y": 611,
    "et": 612,
    " h": 613,
    " l": 614,
    "ro": 615,
    " you": 616,
    "gh": 617,
    "ss": 618,
    "el": 619,
    "ist": 620,
    " n": 621,
    " e": 622,
    "il": 623,
    "ation": 624,
    "ant": 625,
    "ght": 626,
    "us": 627,
    "as": 628,
    " are": 629,
    "ch": 630,
    " B": 631,
    " di": 632,
    "os": 633,
    " g": 634,
    "im": 635,
    "ve": 636,
    "id": 637,
    "\n\n": 638,
    "ra": 639,
    " T": 640,
    "ce": 641,
    "ith": 642,
    " Y": 643,
    "ow": 644,
    " for": 645,
    "ya": 646,
    " st": 647,
    "ought": 648,
    "ful": 649,
    " At": 650,
    " with": 651,
    " Atul": 652,
    " Atulya": 653,
    " You": 654,
    "yst": 655,
    "ystem": 656,
    "ssist": 657,
    " **": 658,
    " on": 659,
    " is": 660,
    "'s": 661,
    "Us": 662,
    "ot": 663,
    " pro": 664,
    "  ": 665,
    "ction": 666,
    "ut": 667,
    "ke": 668,
    "ssistant": 669,
    "arm": 670,
    "ur": 671,
    "rect": 672,
    "ag": 673,
    "am": 674,
    " thought": 675,
    "all": 676,
    "ol": 677,
    "eos": 678,
    " Be": 679,
    " direct": 680,
    " can": 681,
    " be": 682,
    "ers": 683,
    "User": 684,
    " warm": 685,
    "System": 686,
    " thoughtful": 687,
    "un": 688,
    "ate": 689,
    "Assistant": 690,
    " that": 691,
    "**:": 692,
    "ri": 693,
    "for": 694,
    " it": 695,
    " us": 696,
    "ay": 697,
    "ab": 698,
    "if": 699,
    " con": 700,
    " \"": 701,
    " or": 702,
    " ha": 703,
    "od": 704,
    "ess": 705,
    " C": 706,
    " k": 707,
    " S": 708,
    " he": 709,
    "ver": 710,
    " com": 711,
    "ir": 712,
    " an": 713,
    "qu": 714,
    " ne": 715,
    "ity": 716,
    "um": 717,
    "oc": 718,
    " al": 719,
    " me": 720,
    "ies": 721,
    "pe": 722,
    " ex": 723,
    "out": 724,
    " your": 725,
    "ure": 726,
    " wh": 727,
    " H": 728,
    "ad": 729,
    " as": 730,
    "pl": 731,
    "ren": 732,
    "th": 733,
    " le": 734,
    "vid": 735,
    "ust": 736,
    " li": 737,
    "her": 738,
    "op": 739,
    " de": 740,
    " su": 741,
    " W": 742,
    "ind": 743,
    " se": 744,
    "se": 745,
    "ore": 746,
    "ain": 747,
    " The": 748,
    " ch": 749,
    "ge": 750,
    " v": 751,
    "ive": 752,
    "ig": 753,
    " j": 754,
    "rom": 755,
    " (": 756,
    "ac": 757,
    "ud": 758,
    "ill": 759,
    " P": 760,
    "pt": 761,
    "form": 762,
    "ff": 763,
    "pp": 764,
    "ak": 765,
    " tr": 766,
    "ult": 767,
    " ab": 768,
    "ans": 769,
    " we": 770,
    "iz": 771,
    "ort": 772,
    " int": 773,
    " im": 774,
    "ly": 775,
    " E": 776,
    " Th": 777,
    " M": 778,
    "ial": 779,
    "iv": 780,
    " en": 781,
    " fe": 782,
    "ment": 783,
    "ld": 784,
    "age": 785,
    "og": 786,
    "lp": 787,
    "able": 788,
    " help": 789,
    "'m": 790,
    "ally": 791,
    " u": 792,
    "ect": 793,
    "art": 794,
    " like": 795,
    " wor": 796,
    "ations": 797,
    " D": 798,
    " provid": 799,
    " In": 800,
    "our": 801,
    "ep": 802,
    "ple": 803,
    " at": 804,
    "ome": 805,
    " from": 806,
    " sh": 807,
    " res": 808,
    "and": 809,
    "ake": 810,
    " r": 811,
    " ar": 812,
    " inc": 813,
    "\":": 814,
    "ions": 815,
    " their": 816,
    " fun": 817,
    " te": 818,
    "ach": 819,
    "_for": 820,
    "_for_": 821,
    " do": 822,
    " \n": 823,
    "ap": 824,
    " about": 825,
    "Action": 826,
    " pl": 827,
    "ter": 828,
    "per": 829,
    "ime": 830,
    "ical": 831,
    " F": 832,
    " It": 833,
    "ks": 834,
    "are": 835,
    ":**": 836,
    "rit": 837,
    " function": 838,
    "ail": 839,
    "ell": 840,
    " by": 841,
    "hi": 842,
    "ance": 843,
    "ould": 844,
    "ine": 845,
    "ence": 846,
    " need": 847,
    "ents": 848,
    "ber": 849,
    "ities": 850,
    " my": 851,
    " अ": 852,
    "ame": 853,
    " R": 854,
    " L": 855,
    " have": 856,
    "now": 857,
    " feel": 858,
    "put": 859,
    " N": 860,
    "ang": 861,
    " cont": 862,
    "reat": 863,
    "est": 864,
    " '": 865,
    " all": 866,
    " imp": 867,
    "du": 868,
    " This": 869,
    " comm": 870,
    " provide": 871,
    "dd": 872,
    "ign": 873,
    "act": 874,
    "\n  ": 875,
    "hen": 876,
    "ata": 877,
    " स": 878,
    " will": 879,
    "ight": 880,
    "ere": 881,
    " not": 882,
    " Wh": 883,
    " ac": 884,
    " pre": 885,
    "'t": 886,
    "ific": 887,
    "rent": 888,
    "cess": 889,
    " this": 890,
    "arn": 891,
    "ition": 892,
    " user": 893,
    " know": 894,
    " go": 895,
    "ard": 896,
    " time": 897,
    "ast": 898,
    " spe": 899,
    " ह": 900,
    " inform": 901,
    "ous": 902,
    "ost": 903,
    "eg": 904,
    "vel": 905,
    " {": 906,
    " क": 907,
    " mat": 908,
    "ue": 909,
    "ire": 910,
    "ok": 911,
    "ong": 912,
    "ice": 913,
    "ry": 914,
    "ress": 915,
    "rie": 916,
    " diff": 917,
    " just": 918,
    " incl": 919,
    " des": 920,
    " em": 921,
    " more": 922,
    "ther": 923,
    "ual": 924,
    " some": 925,
    " use": 926,
    "ase": 927,
    " call": 928,
    "elf": 929,
    " Can": 930,
    " cl": 931,
    " get": 932,
    "nt": 933,
    " information": 934,
    " str": 935,
    "ble": 936,
    " G": 937,
    " includ": 938,
    "ich": 939,
    " want": 940,
    "\",": 941,
    "one": 942,
    "arch": 943,
    "nder": 944,
    "pon": 945,
    " un": 946,
    "di": 947,
    " 1": 948,
    " qu": 949,
    " म": 950,
    " man": 951,
    "rou": 952,
    "ass": 953,
    "etw": 954,
    "ie": 955,
    "ings": 956,
    " pe": 957,
    " diffe": 958,
    " ev": 959,
    "ased": 960,
    "ish": 961,
    "led": 962,
    " tra": 963,
    " data": 964,
    " hai": 965,
    " such": 966,
    "aking": 967,
    "ces": 968,
    "ia": 969,
    " spec": 970,
    " over": 971,
    "ated": 972,
    "ci": 973,
    " ke": 974,
    " but": 975,
    "Th": 976,
    " one": 977,
    "ide": 978,
    " What": 979,
    "PI": 980,
    " comp": 981,
    "ark": 982,
    "com": 983,
    " up": 984,
    "int": 985,
    "ocus": 986,
    " requ": 987,
    " other": 988,
    " O": 989,
    " commun": 990,
    " which": 991,
    " new": 992,
    "angu": 993,
    " under": 994,
    "ms": 995,
    "ack": 996,
    "ode": 997,
    "ics": 998,
    " API": 999,
    "xt": 1000,
    " learn": 1001,
    "ility": 1002,
    " what": 1003,
    "ating": 1004,
    " dis": 1005,
    "ely": 1006,
    " out": 1007,
    "'re": 1008,
    "ary": 1009,
    "ps": 1010,
    " How": 1011,
    "so": 1012,
    " rel": 1013,
    " trans": 1014,
    " was": 1015,
    " -": 1016,
    " ret": 1017,
    " langu": 1018,
    "ari": 1019,
    " work": 1020,
    "ace": 1021,
    "ose": 1022,
    "ving": 1023,
    " En": 1024,
    " find": 1025,
    " make": 1026,
    " way": 1027,
    "vers": 1028,
    " so": 1029,
    "ages": 1030,
    "get": 1031,
    "Thought": 1032,
    " focus": 1033,
    "te": 1034,
    "ize": 1035,
    "egin": 1036,
    "ook": 1037,
    "ne": 1038,
    " list": 1039,
    " using": 1040,
    " app": 1041,
    " if": 1042,
    " gen": 1043,
    " sc": 1044,
    "ile": 1045,
    "ount": 1046,
    " Input": 1047,
    " cal": 1048,
    "Begin": 1049,
    "very": 1050,
    " step": 1051,
    "stand": 1052,
    " per": 1053,
    " how": 1054,
    "omet": 1055,
    " ad": 1056,
    "ife": 1057,
    "ound": 1058,
    "ember": 1059,
    "ular": 1060,
    "velop": 1061,
    "een": 1062,
    " them": 1063,
    " betw": 1064,
    " between": 1065,
    " expl": 1066,
    " let": 1067,
    " am": 1068,
    " has": 1069,
    " val": 1070,
    " system": 1071,
    "ck": 1072,
    " try": 1073,
    " ra": 1074,
    " understand": 1075,
    "00": 1076,
    "ctions": 1077,
    "erv": 1078,
    " when": 1079,
    " they": 1080,
    "gl": 1081,
    "alth": 1082,
    "ram": 1083,
    " part": 1084,
    "ices": 1085,
    "\n\t": 1086,
    "ather": 1087,
    "res": 1088,
    " mod": 1089,
    " sm": 1090,
    "ates": 1091,
    " rem": 1092,
    " soc": 1093,
    "av": 1094,
    "ason": 1095,
    " det": 1096,
    "ement": 1097,
    "ory": 1098,
    "ange": 1099,
    "ddition": 1100,
    "ify": 1101,
    "ood": 1102,
    " specific": 1103,
    "here": 1104,
    "ink": 1105,
    "ures": 1106,
    "self": 1107,
    " AI": 1108,
    " Sans": 1109,
    " Sansk": 1110,
    " Sanskrit": 1111,
    " respon": 1112,
    "cy": 1113,
    "ors": 1114,
    "fl": 1115,
    " cons": 1116,
    "ise": 1117,
    "\n ": 1118,
    " every": 1119,
    "als": 1120,
    "con": 1121,
    "les": 1122,
    " ph": 1123,
    "ah": 1124,
    " tas": 1125,
    "ub": 1126,
    " mult": 1127,
    "In": 1128,
    "cur": 1129,
    "aly": 1130,
    "ject": 1131,
    "lect": 1132,
    "ract": 1133,
    "imes": 1134,
    " Hind": 1135,
    "ication": 1136,
    "str": 1137,
    " col": 1138,
    " don": 1139,
    " each": 1140,
    "wn": 1141,
    " U": 1142,
    " any": 1143,
    " arg": 1144,
    " hain": 1145,
    "pport": 1146,
    "uil": 1147,
    " pers": 1148,
    "duct": 1149,
    "ord": 1150,
    " different": 1151,
    " Hindi": 1152,
    "``": 1153,
    "ern": 1154,
    "tain": 1155,
    " J": 1156,
    " our": 1157,
    " av": 1158,
    " import": 1159,
    "reate": 1160,
    " its": 1161,
    " num": 1162,
    "arket": 1163,
    "ural": 1164,
    " eff": 1165,
    " sp": 1166,
    " =": 1167,
    " exper": 1168,
    " learning": 1169,
    "ib": 1170,
    " code": 1171,
    "ention": 1172,
    "ob": 1173,
    " अत": 1174,
    "iness": 1175,
    " develop": 1176,
    "dditionally": 1177,
    "gan": 1178,
    "ness": 1179,
    "    ": 1180,
    " cur": 1181,
    "ople": 1182,
    "pect": 1183,
    " Additionally": 1184,
    " retrie": 1185,
    " would": 1186,
    "ilities": 1187,
    "low": 1188,
    " De": 1189,
    " health": 1190,
    " pr": 1191,
    " gener": 1192,
    " reason": 1193,
    "ential": 1194,
    " cult": 1195,
    "ays": 1196,
    "igh": 1197,
    "ph": 1198,
    "ree": 1199,
    " act": 1200,
    " life": 1201,
    "ten": 1202,
    "thing": 1203,
    " 2": 1204,
    " argum": 1205,
    " comple": 1206,
    " prog": 1207,
    " sol": 1208,
    " also": 1209,
    "etch": 1210,
    "row": 1211,
    " By": 1212,
    "The": 1213,
    "nds": 1214,
    " including": 1215,
    " ob": 1216,
    " who": 1217,
    "eng": 1218,
    "uct": 1219,
    " small": 1220,
    "ience": 1221,
    " ap": 1222,
    " mein": 1223,
    "anc": 1224,
    "ting": 1225,
    " analy": 1226,
    " take": 1227,
    "glish": 1228,
    "hing": 1229,
    " ho": 1230,
    " request": 1231,
    "ूँ": 1232,
    " people": 1233,
    "de": 1234,
    "ues": 1235,
    " ए": 1236,
    " English": 1237,
    " plan": 1238,
    " social": 1239,
    "ident": 1240,
    "ript": 1241,
    " proble": 1242,
    " retrieve": 1243,
    "erest": 1244,
    " design": 1245,
    " fetch": 1246,
    " there": 1247,
    " att": 1248,
    " own": 1249,
    "ateg": 1250,
    "cl": 1251,
    " used": 1252,
    " lo": 1253,
    " pat": 1254,
    " where": 1255,
    " lead": 1256,
    " somet": 1257,
    "api": 1258,
    " add": 1259,
    " being": 1260,
    "cept": 1261,
    "iqu": 1262,
    "ll": 1263,
    "mat": 1264,
    " med": 1265,
    " these": 1266,
    "ning": 1267,
    "ug": 1268,
    " may": 1269,
    " po": 1270,
    " should": 1271,
    "own": 1272,
    " search": 1273,
    "usiness": 1274,
    " That": 1275,
    " सह": 1276,
    "to": 1277,
    " off": 1278,
    "ious": 1279,
    "ments": 1280,
    "ower": 1281,
    " organ": 1282,
    " sign": 1283,
    " top": 1284,
    "chn": 1285,
    "ens": 1286,
    " yourself": 1287,
    ").": 1288,
    "vidual": 1289,
    " St": 1290,
    " appro": 1291,
    " reg": 1292,
    "10": 1293,
    "ability": 1294,
    "ails": 1295,
    "ative": 1296,
    " ro": 1297,
    " into": 1298,
    " than": 1299,
    "erg": 1300,
    "ient": 1301,
    " chall": 1302,
    " log": 1303,
    "ves": 1304,
    "ें": 1305,
    " char": 1306,
    " tasks": 1307,
    " `": 1308,
    " feeling": 1309,
    " market": 1310,
    " writ": 1311,
    "any": 1312,
    "olog": 1313,
    " buil": 1314,
    " cap": 1315,
    " important": 1316,
    " interest": 1317,
    " transl": 1318,
    " vari": 1319,
    " aur": 1320,
    " art": 1321,
    " ens": 1322,
    " indi": 1323,
    " often": 1324,
    "ding": 1325,
    "right": 1326,
    "ward": 1327,
    " eng": 1328,
    " language": 1329,
    "ense": 1330,
    "hel": 1331,
    " ent": 1332,
    " dec": 1333,
    "name": 1334,
    "ork": 1335,
    " Ch": 1336,
    " loc": 1337,
    "ional": 1338,
    "its": 1339,
    " individual": 1340,
    " co": 1341,
    " effect": 1342,
    " fl": 1343,
    " team": 1344,
    " avail": 1345,
    " person": 1346,
    " कर": 1347,
    "ye": 1348,
    " include": 1349,
    " things": 1350,
    " To": 1351,
    " taking": 1352,
    " think": 1353,
    " create": 1354,
    " complex": 1355,
    " number": 1356,
    "co": 1357,
    "ming": 1358,
    "ner": 1359,
    " ful": 1360,
    " sa": 1361,
    "ems": 1362,
    "rough": 1363,
    "urn": 1364,
    "िं": 1365,
    " pop": 1366,
    " product": 1367,
    " set": 1368,
    " well": 1369,
    "be": 1370,
    "ety": 1371,
    " ident": 1372,
    "ी,": 1373,
    " ag": 1374,
    " exam": 1375,
    " high": 1376,
    " ty": 1377,
    "Use": 1378,
    "_p": 1379,
    "ip": 1380,
    "ivity": 1381,
    "ized": 1382,
    " impro": 1383,
    " might": 1384,
    " those": 1385,
    " too": 1386,
    "ars": 1387,
    "ite": 1388,
    "med": 1389,
    "ैं": 1390,
    " त": 1391,
    " frie": 1392,
    " process": 1393,
    " why": 1394,
    " ब": 1395,
    " reasoning": 1396,
    " start": 1397,
    " support": 1398,
    "search": 1399,
    " ide": 1400,
    " everything": 1401,
    " sim": 1402,
    " through": 1403,
    "ily": 1404,
    "ty": 1405,
    " back": 1406,
    " techn": 1407,
    " creat": 1408,
    " current": 1409,
    " languages": 1410,
    "_d": 1411,
    "bers": 1412,
    "line": 1413,
    "ories": 1414,
    "rence": 1415,
    " Here": 1416,
    " business": 1417,
    " incre": 1418,
    " thing": 1419,
    "hes": 1420,
    "iew": 1421,
    " redu": 1422,
    " respons": 1423,
    "ucture": 1424,
    "ys": 1425,
    " care": 1426,
    " remember": 1427,
    " even": 1428,
    " great": 1429,
    " ye": 1430,
    " right": 1431,
    " require": 1432,
    " result": 1433,
    " ind": 1434,
    " rec": 1435,
    " see": 1436,
    " gu": 1437,
    "els": 1438,
    "ian": 1439,
    " best": 1440,
    " class": 1441,
    " content": 1442,
    " good": 1443,
    " inv": 1444,
    "ational": 1445,
    "flu": 1446,
    "tern": 1447,
    " K": 1448,
    " action": 1449,
    " appl": 1450,
    "यक": 1451,
    " been": 1452,
    " {}": 1453,
    "ric": 1454,
    " Con": 1455,
    " ass": 1456,
    " inter": 1457,
    " sk": 1458,
    "ov": 1459,
    " concept": 1460,
    " multi": 1461,
    " stud": 1462,
    "gest": 1463,
    "oth": 1464,
    " Al": 1465,
    " grou": 1466,
    " hum": 1467,
    " hand": 1468,
    " serv": 1469,
    "fe": 1470,
    "ism": 1471,
    " challeng": 1472,
    " many": 1473,
    " rep": 1474,
    "'ll": 1475,
    "ze": 1476,
    " play": 1477,
    " prev": 1478,
    "ex": 1479,
    "uring": 1480,
    " My": 1481,
    " bra": 1482,
    " details": 1483,
    " perform": 1484,
    " world": 1485,
    "'ve": 1486,
    "),": 1487,
    "ining": 1488,
    " address": 1489,
    " name": 1490,
    " prom": 1491,
    " self": 1492,
    "ationshi": 1493,
    "ery": 1494,
    " available": 1495,
    " no": 1496,
    " opt": 1497,
    " power": 1498,
    "by": 1499,
    "ds": 1500,
    "ental": 1501,
    "ization": 1502,
    "uc": 1503,
    " assistant": 1504,
    " overw": 1505,
    " overwhel": 1506,
    " ग": 1507,
    " Based": 1508,
    " communication": 1509,
    "king": 1510,
    " But": 1511,
    " based": 1512,
    " could": 1513,
    " media": 1514,
    " sense": 1515,
    "ron": 1516,
    " down": 1517,
    " V": 1518,
    " disc": 1519,
    " ko": 1520,
    " key": 1521,
    " main": 1522,
    " partic": 1523,
    " prof": 1524,
    " tool": 1525,
    "akes": 1526,
    "emember": 1527,
    "ines": 1528,
    "ledge": 1529,
    " bec": 1530,
    " company": 1531,
    " designed": 1532,
    " ensure": 1533,
    " really": 1534,
    "irst": 1535,
    "urp": 1536,
    " [": 1537,
    " And": 1538,
    " approach": 1539,
    " che": 1540,
    " hot": 1541,
    " pract": 1542,
    "bs": 1543,
    "ible": 1544,
    " न": 1545,
    " allow": 1546,
    " her": 1547,
    " relationshi": 1548,
    "end": 1549,
    "itive": 1550,
    "up": 1551,
    " count": 1552,
    " community": 1553,
    " deep": 1554,
    " multiple": 1555,
    " share": 1556,
    " sug": 1557,
    "agement": 1558,
    "ature": 1559,
    "eth": 1560,
    " arguments": 1561,
    " desire": 1562,
    " explain": 1563,
    " grow": 1564,
    " ka": 1565,
    "ts": 1566,
    "vant": 1567,
    " aut": 1568,
    " acc": 1569,
    " contro": 1570,
    " dist": 1571,
    " most": 1572,
    " trying": 1573,
    " सक": 1574,
    " सकत": 1575,
    " mem": 1576,
    " mom": 1577,
    " pri": 1578,
    "ross": 1579,
    "ustom": 1580,
    " systems": 1581,
    "ollow": 1582,
    "read": 1583,
    " next": 1584,
    "St": 1585,
    "ering": 1586,
    "hemat": 1587,
    "izing": 1588,
    "oura": 1589,
    "use": 1590,
    "ved": 1591,
    "ways": 1592,
    " cle": 1593,
    " divers": 1594,
    " fam": 1595,
    "```": 1596,
    "ai": 1597,
    "ality": 1598,
    "atform": 1599,
    "ique": 1600,
    " औ": 1601,
    " Ne": 1602,
    " mathemat": 1603,
    " suggest": 1604,
    " और": 1605,
    "cript": 1606,
    "ergy": 1607,
    "ging": 1608,
    "uch": 1609,
    "ven": 1610,
    " program": 1611,
    "list": 1612,
    "vis": 1613,
    " el": 1614,
    " vid": 1615,
    " rele": 1616,
    "_s": 1617,
    "erm": 1618,
    " bhi": 1619,
    " difference": 1620,
    " impact": 1621,
    " making": 1622,
    " others": 1623,
    " planning": 1624,
    " something": 1625,
    " while": 1626,
    "br": 1627,
    " breat": 1628,
    " follow": 1629,
    "ases": 1630,
    "day": 1631,
    "ertain": 1632,
    "hed": 1633,
    "ough": 1634,
    "ources": 1635,
    "ude": 1636,
    "enc": 1637,
    "rib": 1638,
    " charact": 1639,
    " event": 1640,
    " influ": 1641,
    " kar": 1642,
    " long": 1643,
    " promot": 1644,
    " value": 1645,
    " एआ": 1646,
    " एआई": 1647,
    "12": 1648,
    "ries": 1649,
    " Ind": 1650,
    " always": 1651,
    "_c": 1652,
    "gor": 1653,
    "ick": 1654,
    "ubl": 1655,
    " Pro": 1656,
    " bat": 1657,
    " calling": 1658,
    " energy": 1659,
    " first": 1660,
    " happ": 1661,
    " mean": 1662,
    " strateg": 1663,
    "reng": 1664,
    " bre": 1665,
    " ser": 1666,
    " understanding": 1667,
    "ene": 1668,
    "orm": 1669,
    " beh": 1670,
    " decis": 1671,
    " quest": 1672,
    "ead": 1673,
    "gorith": 1674,
    "iling": 1675,
    "oot": 1676,
    " calm": 1677,
    " project": 1678,
    " toh": 1679,
    " गण": 1680,
    "air": 1681,
    "ifi": 1682,
    "iron": 1683,
    " example": 1684,
    " mot": 1685,
    "ax": 1686,
    " Ex": 1687,
    " Just": 1688,
    " algorith": 1689,
    " custom": 1690,
    " logical": 1691,
    " platform": 1692,
    " problems": 1693,
    " streng": 1694,
    "comm": 1695,
    "ency": 1696,
    "omain": 1697,
    "ret": 1698,
    "ि।": 1699,
    " mind": 1700,
    " ref": 1701,
    "_api": 1702,
    "port": 1703,
    " challenges": 1704,
    " invol": 1705,
    " knowledge": 1706,
    " pres": 1707,
    " previous": 1708,
    " tre": 1709,
    " without": 1710,
    "_name": 1711,
    "_t": 1712,
    "abilities": 1713,
    "ences": 1714,
    "ulation": 1715,
    "viron": 1716,
    " ess": 1717,
    " control": 1718,
    " eas": 1719,
    " food": 1720,
    " prior": 1721,
    " responsib": 1722,
    " strength": 1723,
    "//": 1724,
    "fill": 1725,
    "imit": 1726,
    "ins": 1727,
    "ublic": 1728,
    " 3": 1729,
    " Use": 1730,
    " er": 1731,
    " bal": 1732,
    " ins": 1733,
    " necess": 1734,
    " pot": 1735,
    " seems": 1736,
    " show": 1737,
    "ogn": 1738,
    "sis": 1739,
    "vest": 1740,
    "ूँ,": 1741,
    " access": 1742,
    " bl": 1743,
    " improve": 1744,
    " jo": 1745,
    " skill": 1746,
    "ives": 1747,
    "nding": 1748,
    "raph": 1749,
    " Remember": 1750,
    " Why": 1751,
    " across": 1752,
    " exp": 1753,
    " inst": 1754,
    " overwhelmed": 1755,
    " signific": 1756,
    " stay": 1757,
    "anag": 1758,
    "ccess": 1759,
    "ha": 1760,
    "ination": 1761,
    "vironment": 1762,
    "\n    ": 1763,
    " ach": 1764,
    " bo": 1765,
    " experience": 1766,
    " family": 1767,
    " hist": 1768,
    " problem": 1769,
    "20": 1770,
    "ater": 1771,
    "coura": 1772,
    "etic": 1773,
    "hy": 1774,
    "uss": 1775,
    " z": 1776,
    " Dev": 1777,
    " equ": 1778,
    " nam": 1779,
    " pos": 1780,
    " results": 1781,
    " she": 1782,
    " solving": 1783,
    "()": 1784,
    "ethod": 1785,
    "kay": 1786,
    "view": 1787,
    " ca": 1788,
    " necessary": 1789,
    " pol": 1790,
    " tri": 1791,
    "_m": 1792,
    "fore": 1793,
    "iss": 1794,
    "old": 1795,
    "vert": 1796,
    " Pl": 1797,
    " around": 1798,
    " argument": 1799,
    " capabilities": 1800,
    " conc": 1801,
    " fulfill": 1802,
    " human": 1803,
    " identify": 1804,
    " op": 1805,
    " writing": 1806,
    "conom": 1807,
    "lease": 1808,
    " Re": 1809,
    " assist": 1810,
    " br": 1811,
    " keep": 1812,
    " model": 1813,
    " now": 1814,
    " popular": 1815,
    " एक": 1816,
    "ade": 1817,
    "ank": 1818,
    "ered": 1819,
    "lab": 1820,
    "li": 1821,
    "ology": 1822,
    "ribut": 1823,
    "wo": 1824,
    " They": 1825,
    " discuss": 1826,
    " individuals": 1827,
    " multiling": 1828,
    " multilingual": 1829,
    " once": 1830,
    " pass": 1831,
    " peace": 1832,
    " relationships": 1833,
    " sent": 1834,
    " values": 1835,
    "nect": 1836,
    "ूँ।": 1837,
    " elect": 1838,
    " essential": 1839,
    " fac": 1840,
    " late": 1841,
    " various": 1842,
    "oid": 1843,
    "par": 1844,
    "ples": 1845,
    " Also": 1846,
    " If": 1847,
    " aud": 1848,
    " bet": 1849,
    " goals": 1850,
    "aw": 1851,
    "ule": 1852,
    " 10": 1853,
    " Devanag": 1854,
    " Devanagari": 1855,
    " achie": 1856,
    " both": 1857,
    " cha": 1858,
    "ndom": 1859,
    " Somet": 1860,
    " indust": 1861,
    " mathematical": 1862,
    " toget": 1863,
    " together": 1864,
    " ya": 1865,
    "dition": 1866,
    "ft": 1867,
    "ooking": 1868,
    "sw": 1869,
    " Sometimes": 1870,
    " adv": 1871,
    " analysis": 1872,
    " dri": 1873,
    " does": 1874,
    " gather": 1875,
    " iss": 1876,
    " karn": 1877,
    " kart": 1878,
    " rather": 1879,
    " stat": 1880,
    " strong": 1881,
    "oad": 1882,
    "otes": 1883,
    "ularly": 1884,
    " We": 1885,
    " bel": 1886,
    " change": 1887,
    " clear": 1888,
    " consid": 1889,
    " development": 1890,
    " manage": 1891,
    " math": 1892,
    " okay": 1893,
    " personal": 1894,
    " read": 1895,
    " script": 1896,
    " success": 1897,
    "Con": 1898,
    "fin": 1899,
    "plement": 1900,
    "wards": 1901,
    " $": 1902,
    " alone": 1903,
    " attention": 1904,
    " car": 1905,
    " did": 1906,
    " form": 1907,
    " give": 1908,
    " news": 1909,
    " object": 1910,
    " programming": 1911,
    " skills": 1912,
    " text": 1913,
    "19": 1914,
    "aut": 1915,
    "cient": 1916,
    "hip": 1917,
    "itions": 1918,
    "itude": 1919,
    "ively": 1920,
    "ond": 1921,
    "pro": 1922,
    "tool": 1923,
    " ed": 1924,
    " aw": 1925,
    " able": 1926,
    " bi": 1927,
    " providing": 1928,
    " ris": 1929,
    " sak": 1930,
    " steps": 1931,
    " structure": 1932,
    " students": 1933,
    " training": 1934,
    " typ": 1935,
    "cription": 1936,
    " else": 1937,
    " here": 1938,
    " meet": 1939,
    " potential": 1940,
    " अस": 1941,
    "ists": 1942,
    "ock": 1943,
    "ym": 1944,
    "तम": 1945,
    "ें,": 1946,
    "\n      ": 1947,
    " 5": 1948,
    " For": 1949,
    " He": 1950,
    " af": 1951,
    " breath": 1952,
    " domain": 1953,
    " environment": 1954,
    " err": 1955,
    " game": 1956,
    " had": 1957,
    " helpful": 1958,
    " invest": 1959,
    " mess": 1960,
    " performance": 1961,
    " real": 1962,
    " related": 1963,
    " repres": 1964,
    " table": 1965,
    " अह": 1966,
    " तर": 1967,
    "oh": 1968,
    " 0": 1969,
    " भ": 1970,
    " email": 1971,
    " fact": 1972,
    " friends": 1973,
    " his": 1974,
    " latest": 1975,
    " mon": 1976,
    " marketing": 1977,
    " means": 1978,
    " responsibilities": 1979,
    " vis": 1980,
    "az": 1981,
    "ever": 1982,
    "ior": 1983,
    "ications": 1984,
    "ney": 1985,
    "word": 1986,
    " Com": 1987,
    " answ": 1988,
    " cor": 1989,
    " common": 1990,
    " helps": 1991,
    " much": 1992,
    " mus": 1993,
    "aste": 1994,
    "ator": 1995,
    "care": 1996,
    "hers": 1997,
    "ically": 1998,
    "ified": 1999,
    "imate": 2000,
    "itu": 2001,
    "ove": 2002,
    "plo": 2003,
    "rint": 2004,
    "ream": 2005,
    " DN": 2006,
    " convers": 2007,
    " fin": 2008,
    " mental": 2009,
    " online": 2010,
    " significant": 2011,
    " नम": 2012,
    " नमस": 2013,
    ".\"": 2014,
    "ately": 2015,
    " day": 2016,
    " doing": 2017,
    " emot": 2018,
    " gra": 2019,
    " nat": 2020,
    " proper": 2021,
    " sum": 2022,
    " sometimes": 2023,
    "aging": 2024,
    "vised": 2025,
    " *": 2026,
    " ID": 2027,
    " moment": 2028,
    " point": 2029,
    " progress": 2030,
    " sub": 2031,
    " then": 2032,
    "15": 2033,
    "cul": 2034,
    "ital": 2035,
    "ivers": 2036,
    "oding": 2037,
    " Inst": 2038,
    " analyze": 2039,
    " cho": 2040,
    " diverse": 2041,
    " econom": 2042,
    " friend": 2043,
    " made": 2044,
    " netw": 2045,
    " two": 2046,
    " three": 2047,
    " upd": 2048,
    "ling": 2049,
    " <": 2050,
    " 20": 2051,
    " ja": 2052,
    " ki": 2053,
    " limit": 2054,
    " price": 2055,
    " state": 2056,
    " task": 2057,
    " true": 2058,
    "_id": 2059,
    "cho": 2060,
    "sive": 2061,
    "ta": 2062,
    " check": 2063,
    " cultural": 2064,
    " dat": 2065,
    " handle": 2066,
    " level": 2067,
    " priorit": 2068,
    " range": 2069,
    " reduce": 2070,
    " relevant": 2071,
    " type": 2072,
    "ball": 2073,
    "fort": 2074,
    "iety": 2075,
    "icate": 2076,
    "osts": 2077,
    "ource": 2078,
    "pervised": 2079,
    "rency": 2080,
    " Go": 2081,
    " growth": 2082,
    " par": 2083,
    " public": 2084,
    " random": 2085,
    " situ": 2086,
    " services": 2087,
    "change": 2088,
    "rypt": 2089,
    " When": 2090,
    " culture": 2091,
    " deb": 2092,
    " explore": 2093,
    " pattern": 2094,
    " products": 2095,
    " research": 2096,
    " towards": 2097,
    " web": 2098,
    " were": 2099,
    ".,": 2100,
    "],": 2101,
    "ets": 2102,
    "ials": 2103,
    "rences": 2104,
    "we": 2105,
    " algorithm": 2106,
    " bah": 2107,
    " balance": 2108,
    " fi": 2109,
    " local": 2110,
    " meaning": 2111,
    " oper": 2112,
    " tal": 2113,
    " working": 2114,
    "11": 2115,
    "ause": 2116,
    "chit": 2117,
    "commend": 2118,
    "io": 2119,
    "pan": 2120,
    "ply": 2121,
    " आ": 2122,
    " Am": 2123,
    " activ": 2124,
    " areas": 2125,
    " ask": 2126,
    " bahut": 2127,
    " break": 2128,
    " gl": 2129,
    " generate": 2130,
    " karte": 2131,
    " present": 2132,
    " unique": 2133,
    " within": 2134,
    "ables": 2135,
    "anced": 2136,
    "chitect": 2137,
    "oring": 2138,
    " An": 2139,
    " character": 2140,
    " dem": 2141,
    " desired": 2142,
    " method": 2143,
    " predi": 2144,
    " same": 2145,
    " store": 2146,
    " teac": 2147,
    " ways": 2148,
    "000": 2149,
    "ailed": 2150,
    "amet": 2151,
    "arget": 2152,
    "ification": 2153,
    "ights": 2154,
    "iven": 2155,
    "ourney": 2156,
    "print": 2157,
    "ution": 2158,
    " book": 2159,
    " before": 2160,
    " behav": 2161,
    " coding": 2162,
    " conf": 2163,
    " needs": 2164,
    " recommend": 2165,
    " topics": 2166,
    "':": 2167,
    "bo": 2168,
    "ellig": 2169,
    "okes": 2170,
    "ris": 2171,
    "thon": 2172,
    "ually": 2173,
    "ython": 2174,
    " Do": 2175,
    " Yes": 2176,
    " accur": 2177,
    " build": 2178,
    " called": 2179,
    " chang": 2180,
    " error": 2181,
    " lar": 2182,
    " query": 2183,
    " sur": 2184,
    "):": 2185,
    "De": 2186,
    "_by": 2187,
    "pportun": 2188,
    "red": 2189,
    "und": 2190,
    "yn": 2191,
    " 4": 2192,
    " New": 2193,
    " ancient": 2194,
    " names": 2195,
    " options": 2196,
    " purp": 2197,
    " profess": 2198,
    " song": 2199,
    " stress": 2200,
    " sty": 2201,
    " test": 2202,
    " trul": 2203,
    " truly": 2204,
    " आप": 2205,
    "lex": 2206,
    "por": 2207,
    "ral": 2208,
    " |": 2209,
    " As": 2210,
    " Well": 2211,
    " better": 2212,
    " cities": 2213,
    " calcul": 2214,
    " effic": 2215,
    " fore": 2216,
    " guid": 2217,
    " implement": 2218,
    " interested": 2219,
    " motiv": 2220,
    " na": 2221,
    " non": 2222,
    " platforms": 2223,
    " practices": 2224,
    " resources": 2225,
    " return": 2226,
    " sal": 2227,
    " strategies": 2228,
    " tough": 2229,
    " trust": 2230,
    " works": 2231,
    "_v": 2232,
    "app": 2233,
    "ana": 2234,
    "come": 2235,
    "elligence": 2236,
    "ffect": 2237,
    "kh": 2238,
    "rans": 2239,
    "ray": 2240,
    "uck": 2241,
    " –": 2242,
    " artic": 2243,
    " bas": 2244,
    " connect": 2245,
    " easy": 2246,
    " exist": 2247,
    " found": 2248,
    " hard": 2249,
    " idea": 2250,
    " increase": 2251,
    " involves": 2252,
    " min": 2253,
    " natural": 2254,
    " opportun": 2255,
    " pa": 2256,
    " rest": 2257,
    "amp": 2258,
    "aring": 2259,
    "curity": 2260,
    "ele": 2261,
    "ips": 2262,
    "ogle": 2263,
    "pend": 2264,
    "tic": 2265,
    " account": 2266,
    " application": 2267,
    " architect": 2268,
    " focused": 2269,
    " inf": 2270,
    " liye": 2271,
    " prot": 2272,
    " response": 2273,
    " sever": 2274,
    " short": 2275,
    " wis": 2276,
    " wants": 2277,
    " yeh": 2278,
    " आपक": 2279,
    "agram": 2280,
    "ches": 2281,
    "def": 2282,
    "hile": 2283,
    "ormal": 2284,
    "other": 2285,
    "rep": 2286,
    "ument": 2287,
    "नत": 2288,
    "\n        ": 2289,
    " again": 2290,
    " built": 2291,
    " cell": 2292,
    " colle": 2293,
    " during": 2294,
    " experi": 2295,
    " feat": 2296,
    " inner": 2297,
    " prioritize": 2298,
    " several": 2299,
    " wee": 2300,
    "',": 2301,
    "achine": 2302,
    "asing": 2303,
    "courage": 2304,
    "igate": 2305,
    "ilos": 2306,
    "ilosop": 2307,
    "iques": 2308,
    "itable": 2309,
    "orks": 2310,
    "redi": 2311,
    "structure": 2312,
    " end": 2313,
    " instr": 2314,
    " issues": 2315,
    " nav": 2316,
    " phys": 2317,
    " poss": 2318,
    " sing": 2319,
    " sure": 2320,
    " trip": 2321,
    " videos": 2322,
    "_n": 2323,
    "aj": 2324,
    "ash": 2325,
    "ath": 2326,
    "labor": 2327,
    "oint": 2328,
    "reci": 2329,
    "requ": 2330,
    "ै।": 2331,
    " anything": 2332,
    " audience": 2333,
    " behavior": 2334,
    " dev": 2335,
    " decisions": 2336,
    " est": 2337,
    " getting": 2338,
    " group": 2339,
    " history": 2340,
    " journey": 2341,
    " kind": 2342,
    " mov": 2343,
    " management": 2344,
    " output": 2345,
    " past": 2346,
    " story": 2347,
    " translation": 2348,
    " words": 2349,
    " write": 2350,
    "\"}": 2351,
    "QL": 2352,
    "apt": 2353,
    "ameters": 2354,
    "cing": 2355,
    "ditional": 2356,
    "hensive": 2357,
    "ier": 2358,
    "jo": 2359,
    "lish": 2360,
    "rehensive": 2361,
    "utions": 2362,
    " Cl": 2363,
    " Fe": 2364,
    " Not": 2365,
    " crit": 2366,
    " few": 2367,
    " goal": 2368,
    " hon": 2369,
    " low": 2370,
    " organizing": 2371,
    " questions": 2372,
    " represent": 2373,
    " strug": 2374,
    " track": 2375,
    "'.": 2376,
    "Col": 2377,
    "ale": 2378,
    "ants": 2379,
    "eo": 2380,
    "enef": 2381,
    "of": 2382,
    "ody": 2383,
    " Ar": 2384,
    " Un": 2385,
    " activities": 2386,
    " become": 2387,
    " belie": 2388,
    " compet": 2389,
    " comprehensive": 2390,
    " contin": 2391,
    " effectively": 2392,
    " events": 2393,
    " following": 2394,
    " general": 2395,
    " industry": 2396,
    " meas": 2397,
    " ord": 2398,
    " surp": 2399,
    " stories": 2400,
    " weather": 2401,
    ")**:": 2402,
    "action": 2403,
    "dom": 2404,
    "eh": 2405,
    "escription": 2406,
    "ibility": 2407,
    "na": 2408,
    "ube": 2409,
    "urch": 2410,
    "vern": 2411,
    "्,": 2412,
    " &": 2413,
    " avoid": 2414,
    " because": 2415,
    " certain": 2416,
    " cy": 2417,
    " ek": 2418,
    " ele": 2419,
    " forward": 2420,
    " full": 2421,
    " home": 2422,
    " intention": 2423,
    " leading": 2424,
    " location": 2425,
    " mater": 2426,
    " music": 2427,
    " only": 2428,
    " open": 2429,
    " recogn": 2430,
    " respect": 2431,
    " stand": 2432,
    " still": 2433,
    " techniques": 2434,
    "..": 2435,
    "My": 2436,
    "back": 2437,
    "ceed": 2438,
    "clus": 2439,
    "ditions": 2440,
    "fect": 2441,
    "ild": 2442,
    "ined": 2443,
    "ters": 2444,
    " ज": 2445,
    " श": 2446,
    " Im": 2447,
    " Take": 2448,
    " cent": 2449,
    " flu": 2450,
    " going": 2451,
    " init": 2452,
    " job": 2453,
    " last": 2454,
    " modern": 2455,
    " positive": 2456,
    " uses": 2457,
    " video": 2458,
    " शक": 2459,
    ");": 2460,
    "_l": 2461,
    "ext": 2462,
    "ength": 2463,
    "iting": 2464,
    "oci": 2465,
    "tle": 2466,
    "verage": 2467,
    "ुं": 2468,
    " उ": 2469,
    " brand": 2470,
    " city": 2471,
    " emplo": 2472,
    " input": 2473,
    " maintain": 2474,
    " normal": 2475,
    " risk": 2476,
    " simple": 2477,
    " बह": 2478,
    "\".": 2479,
    "By": 2480,
    "Com": 2481,
    "_list": 2482,
    "aching": 2483,
    "erc": 2484,
    "ervation": 2485,
    "fety": 2486,
    "ited": 2487,
    "ocol": 2488,
    "ograph": 2489,
    "omen": 2490,
    "opt": 2491,
    "su": 2492,
    "ustain": 2493,
    "work": 2494,
    "ych": 2495,
    "ी),": 2496,
    "्).": 2497,
    " Le": 2498,
    " Sh": 2499,
    " These": 2500,
    " activity": 2501,
    " appreci": 2502,
    " area": 2503,
    " bring": 2504,
    " concern": 2505,
    " feels": 2506,
    " hota": 2507,
    " influenc": 2508,
    " karo": 2509,
    " neg": 2510,
    " purpose": 2511,
    " rout": 2512,
    " sab": 2513,
    " उन": 2514,
    "ards": 2515,
    "ats": 2516,
    "ements": 2517,
    "ict": 2518,
    "ince": 2519,
    "ootball": 2520,
    "rastructure": 2521,
    " ve": 2522,
    " She": 2523,
    " actions": 2524,
    " cr": 2525,
    " ext": 2526,
    " fut": 2527,
    " ideas": 2528,
    " intro": 2529,
    " isn": 2530,
    " lit": 2531,
    " obs": 2532,
    " obtain": 2533,
    " provides": 2534,
    " role": 2535,
    " someone": 2536,
    " tour": 2537,
    " translating": 2538,
    "Ex": 2539,
    "_f": 2540,
    "ave": 2541,
    "ances": 2542,
    "comes": 2543,
    "ons": 2544,
    "respon": 2545,
    "ression": 2546,
    " beaut": 2547,
    " engaging": 2548,
    " experiences": 2549,
    " fil": 2550,
    " features": 2551,
    " less": 2552,
    " night": 2553,
    " philosop": 2554,
    " service": 2555,
    "ane": 2556,
    "ared": 2557,
    "atch": 2558,
    "book": 2559,
    "edback": 2560,
    "light": 2561,
    "new": 2562,
    "ote": 2563,
    "ि,": 2564,
    " DNS": 2565,
    " after": 2566,
    " customer": 2567,
    " exchange": 2568,
    " importance": 2569,
    " lab": 2570,
    " lik": 2571,
    " machine": 2572,
    " matter": 2573,
    " members": 2574,
    " perspect": 2575,
    " practice": 2576,
    " sentence": 2577,
    " stra": 2578,
    " target": 2579,
    " tem": 2580,
    " users": 2581,
    " webs": 2582,
    " years": 2583,
    "22": 2584,
    "_data": 2585,
    "ec": 2586,
    "ener": 2587,
    "eric": 2588,
    "iment": 2589,
    "ractions": 2590,
    " प": 2591,
    " ल": 2592,
    " However": 2593,
    " architecture": 2594,
    " benef": 2595,
    " cour": 2596,
    " country": 2597,
    " ef": 2598,
    " flow": 2599,
    " gent": 2600,
    " image": 2601,
    " light": 2602,
    " mist": 2603,
    " methods": 2604,
    " particularly": 2605,
    " rece": 2606,
    " summ": 2607,
    " today": 2608,
    " travel": 2609,
    " worry": 2610,
    "ST": 2611,
    "ample": 2612,
    "fine": 2613,
    "ru": 2614,
    "time": 2615,
    " Is": 2616,
    " associ": 2617,
    " communicate": 2618,
    " cultures": 2619,
    " del": 2620,
    " decision": 2621,
    " enjo": 2622,
    " fig": 2623,
    " groups": 2624,
    " insp": 2625,
    " large": 2626,
    " month": 2627,
    " opportunities": 2628,
    " organization": 2629,
    " quotes": 2630,
    " requested": 2631,
    " single": 2632,
    " times": 2633,
    " translate": 2634,
    " waste": 2635,
    " wanted": 2636,
    "aren": 2637,
    "aces": 2638,
    "cast": 2639,
    "code": 2640,
    "cra": 2641,
    "eah": 2642,
    "istics": 2643,
    "itor": 2644,
    "just": 2645,
    "my": 2646,
    "obal": 2647,
    "play": 2648,
    "the": 2649,
    " 19": 2650,
    " Americ": 2651,
    " Google": 2652,
    " India": 2653,
    " Yeah": 2654,
    " allows": 2655,
    " come": 2656,
    " conne": 2657,
    " concepts": 2658,
    " contribut": 2659,
    " determ": 2660,
    " educ": 2661,
    " electron": 2662,
    " emotions": 2663,
    " everyone": 2664,
    " free": 2665,
    " future": 2666,
    " infrastructure": 2667,
    " influence": 2668,
    " love": 2669,
    " makes": 2670,
    " navigate": 2671,
    " optim": 2672,
    " promote": 2673,
    " review": 2674,
    " {\"": 2675,
    "?**": 2676,
    "En": 2677,
    "To": 2678,
    "_st": 2679,
    "_par": 2680,
    "alu": 2681,
    "ancial": 2682,
    "enge": 2683,
    "get_": 2684,
    "phas": 2685,
    "reen": 2686,
    "renc": 2687,
    "uilding": 2688,
    " Cons": 2689,
    " Res": 2690,
    " accurate": 2691,
    " big": 2692,
    " comput": 2693,
    " consider": 2694,
    " efficient": 2695,
    " factors": 2696,
    " genetic": 2697,
    " interests": 2698,
    " karna": 2699,
    " looking": 2700,
    " message": 2701,
    " offer": 2702,
    " overall": 2703,
    " patterns": 2704,
    " polic": 2705,
    " sustain": 2706,
    " safety": 2707,
    " songs": 2708,
    " specifically": 2709,
    " अन": 2710,
    "--": 2711,
    "RL": 2712,
    "areness": 2713,
    "bit": 2714,
    "cle": 2715,
    "elves": 2716,
    "elebr": 2717,
    "ert": 2718,
    "ffic": 2719,
    "kin": 2720,
    "oks": 2721,
    "oud": 2722,
    "s_for_": 2723,
    "uro": 2724,
    "मत": 2725,
    " On": 2726,
    " along": 2727,
    " another": 2728,
    " articles": 2729,
    " batter": 2730,
    " building": 2731,
    " case": 2732,
    " crypt": 2733,
    " due": 2734,
    " datab": 2735,
    " domains": 2736,
    " feedback": 2737,
    " gr": 2738,
    " inn": 2739,
    " met": 2740,
    " models": 2741,
    " nut": 2742,
    " network": 2743,
    " run": 2744,
    " reflect": 2745,
    " struggl": 2746,
    " valid": 2747,
    " word": 2748,
    "Ch": 2749,
    "Cl": 2750,
    "_parameters": 2751,
    "being": 2752,
    "chan": 2753,
    "coin": 2754,
    "gle": 2755,
    "ocur": 2756,
    "ordin": 2757,
    "return": 2758,
    "set": 2759,
    "term": 2760,
    " es": 2761,
    " Develop": 2762,
    " IP": 2763,
    " Life": 2764,
    " categ": 2765,
    " const": 2766,
    " desc": 2767,
    " effective": 2768,
    " emerg": 2769,
    " focusing": 2770,
    " hab": 2771,
    " integ": 2772,
    " mo": 2773,
    " matches": 2774,
    " numbers": 2775,
    " post": 2776,
    " patient": 2777,
    " perfect": 2778,
    " water": 2779,
    " woh": 2780,
    ",\"": 2781,
    "13": 2782,
    "Pro": 2783,
    "aily": 2784,
    "cre": 2785,
    "duc": 2786,
    "ee": 2787,
    "ello": 2788,
    "go": 2789,
    "grou": 2790,
    "icult": 2791,
    "ilar": 2792,
    "ired": 2793,
    "load": 2794,
    "ties": 2795,
    "tt": 2796,
    "type": 2797,
    " 7": 2798,
    " Em": 2799,
    " Python": 2800,
    " URL": 2801,
    " applications": 2802,
    " characters": 2803,
    " context": 2804,
    " countries": 2805,
    " employe": 2806,
    " file": 2807,
    " format": 2808,
    " govern": 2809,
    " images": 2810,
    " known": 2811,
    " order": 2812,
    " particip": 2813,
    " physical": 2814,
    " proceed": 2815,
    " recent": 2816,
    " sound": 2817,
    " sched": 2818,
    " server": 2819,
    "14": 2820,
    "RI": 2821,
    "Te": 2822,
    "af": 2823,
    "ablish": 2824,
    "agn": 2825,
    "ahin": 2826,
    "date": 2827,
    "iod": 2828,
    "key": 2829,
    "rise": 2830,
    "ula": 2831,
    " ver": 2832,
    " Ad": 2833,
    " Good": 2834,
    " Int": 2835,
    " So": 2836,
    " achieve": 2837,
    " aspect": 2838,
    " changes": 2839,
    " clos": 2840,
    " days": 2841,
    " debug": 2842,
    " difficult": 2843,
    " emp": 2844,
    " face": 2845,
    " healthcare": 2846,
    " imag": 2847,
    " loss": 2848,
    " materials": 2849,
    " professional": 2850,
    " sakte": 2851,
    " tot": 2852,
    " tools": 2853,
    " traditional": 2854,
    " vers": 2855,
    " wal": 2856,
    " wond": 2857,
    "ains": 2858,
    "based": 2859,
    "bol": 2860,
    "hentic": 2861,
    "iet": 2862,
    "pes": 2863,
    "text": 2864,
    "umn": 2865,
    " +": 2866,
    " No": 2867,
    " Te": 2868,
    " While": 2869,
    " air": 2870,
    " collabor": 2871,
    " comfort": 2872,
    " consist": 2873,
    " exerc": 2874,
    " fast": 2875,
    " fund": 2876,
    " gentle": 2877,
    " inde": 2878,
    " intelligence": 2879,
    " jokes": 2880,
    " justice": 2881,
    " karne": 2882,
    " please": 2883,
    " population": 2884,
    " question": 2885,
    " regular": 2886,
    " requires": 2887,
    " sym": 2888,
    " surprise": 2889,
    " univers": 2890,
    " vir": 2891,
    "As": 2892,
    "_for_s": 2893,
    "aan": 2894,
    "anks": 2895,
    "ancing": 2896,
    "atitude": 2897,
    "earch": 2898,
    "ix": 2899,
    "inci": 2900,
    "ison": 2901,
    "ological": 2902,
    "string": 2903,
    "ume": 2904,
    "vol": 2905,
    "यत": 2906,
    " \\": 2907,
    " Nothing": 2908,
    " appreciate": 2909,
    " associated": 2910,
    " comb": 2911,
    " cruc": 2912,
    " crucial": 2913,
    " cryptocur": 2914,
    " database": 2915,
    " given": 2916,
    " hu": 2917,
    " hur": 2918,
    " healthy": 2919,
    " impl": 2920,
    " interesting": 2921,
    " likely": 2922,
    " moments": 2923,
    " prices": 2924,
    " provided": 2925,
    " reach": 2926,
    " score": 2927,
    " seen": 2928,
    " strategy": 2929,
    " summary": 2930,
    " thinking": 2931,
    "Im": 2932,
    "ape": 2933,
    "aling": 2934,
    "da": 2935,
    "eep": 2936,
    "formation": 2937,
    "ger": 2938,
    "ifying": 2939,
    "ighb": 2940,
    "orpor": 2941,
    "ute": 2942,
    "ware": 2943,
    " i": 2944,
    " Mod": 2945,
    " Please": 2946,
    " Pres": 2947,
    " answers": 2948,
    " capable": 2949,
    " challenge": 2950,
    " defin": 2951,
    " dig": 2952,
    " diversity": 2953,
    " engagement": 2954,
    " enjoy": 2955,
    " expect": 2956,
    " fire": 2957,
    " fiel": 2958,
    " figure": 2959,
    " generation": 2960,
    " informed": 2961,
    " law": 2962,
    " live": 2963,
    " match": 2964,
    " mechan": 2965,
    " nature": 2966,
    " page": 2967,
    " party": 2968,
    " phone": 2969,
    " points": 2970,
    " remind": 2971,
    " respond": 2972,
    " sell": 2973,
    " sources": 2974,
    " space": 2975,
    " subs": 2976,
    " useful": 2977,
    " vac": 2978,
    " weight": 2979,
    " wisdom": 2980,
    "_v2": 2981,
    "acy": 2982,
    "bon": 2983,
    "cious": 2984,
    "current": 2985,
    "eling": 2986,
    "igher": 2987,
    "ina": 2988,
    "less": 2989,
    "let": 2990,
    "oga": 2991,
    "orts": 2992,
    "rap": 2993,
    "rem": 2994,
    " Cont": 2995,
    " Oh": 2996,
    " Some": 2997,
    " YouT": 2998,
    " ability": 2999,
    " anx": 3000,
    " bad": 3001,
    " benefits": 3002,
    " costs": 3003,
    " concerns": 3004,
    " done": 3005,
    " debugging": 3006,
    " feelings": 3007,
    " finding": 3008,
    " guide": 3009,
    " happy": 3010,
    " innov": 3011,
    " mor": 3012,
    " place": 3013,
    " possible": 3014,
    " similar": 3015,
    " style": 3016,
    " suitable": 3017,
    " technology": 3018,
    " topic": 3019,
    "34": 3020,
    "Ind": 3021,
    "cc": 3022,
    "chool": 3023,
    "duction": 3024,
    "gment": 3025,
    "ilk": 3026,
    "inal": 3027,
    "iving": 3028,
    "izations": 3029,
    "oms": 3030,
    "otic": 3031,
    "tool_name": 3032,
    "ulations": 3033,
    "uments": 3034,
    "url": 3035,
    "vide": 3036,
    "{\"": 3037,
    "े!": 3038,
    " Fin": 3039,
    " Focus": 3040,
    " Hey": 3041,
    " Let": 3042,
    " Nor": 3043,
    " Thanks": 3044,
    " YouTube": 3045,
    " bir": 3046,
    " customers": 3047,
    " doc": 3048,
    " dep": 3049,
    " economy": 3050,
    " emphas": 3051,
    " head": 3052,
    " huge": 3053,
    " increasing": 3054,
    " items": 3055,
    " nahin": 3056,
    " needed": 3057,
    " powerful": 3058,
    " rates": 3059,
    " reducing": 3060,
    " seem": 3061,
    " shared": 3062,
    " successful": 3063,
    " teachers": 3064,
    " view": 3065,
    " अहम": 3066,
    "Colle": 3067,
    "Here": 3068,
    "_in": 3069,
    "_search": 3070,
    "_for_m": 3071,
    "ault": 3072,
    "actly": 3073,
    "ands": 3074,
    "avor": 3075,
    "building": 3076,
    "cially": 3077,
    "ctor": 3078,
    "ection": 3079,
    "heck": 3080,
    "ik": 3081,
    "ider": 3082,
    "ises": 3083,
    "medi": 3084,
    "nded": 3085,
    "ocial": 3086,
    "odes": 3087,
    "ration": 3088,
    "rencies": 3089,
    "rop": 3090,
    "supervised": 3091,
    "ury": 3092,
    "ynam": 3093,
    " Des": 3094,
    " May": 3095,
    " advanced": 3096,
    " behind": 3097,
    " chocol": 3098,
    " conditions": 3099,
    " convert": 3100,
    " course": 3101,
    " creating": 3102,
    " dark": 3103,
    " devices": 3104,
    " economic": 3105,
    " evalu": 3106,
    " examples": 3107,
    " got": 3108,
    " global": 3109,
    " hy": 3110,
    " intern": 3111,
    " living": 3112,
    " manag": 3113,
    " opin": 3114,
    " reli": 3115,
    " situation": 3116,
    " situations": 3117,
    " struct": 3118,
    " trends": 3119,
    " women": 3120,
    " website": 3121,
    "55": 3122,
    "College": 3123,
    "ET": 3124,
    "Res": 3125,
    "Step": 3126,
    "Yeh": 3127,
    "_b": 3128,
    "aries": 3129,
    "dent": 3130,
    "ey": 3131,
    "ferences": 3132,
    "ford": 3133,
    "gre": 3134,
    "ilit": 3135,
    "ising": 3136,
    "isms": 3137,
    "know": 3138,
    "ots": 3139,
    "rams": 3140,
    "ribe": 3141,
    "ted": 3142,
    "unction": 3143,
    " adjust": 3144,
    " bro": 3145,
    " cells": 3146,
    " challenging": 3147,
    " clar": 3148,
    " coordin": 3149,
    " collect": 3150,
    " communities": 3151,
    " conversation": 3152,
    " differences": 3153,
    " ear": 3154,
    " exc": 3155,
    " expert": 3156,
    " financial": 3157,
    " hold": 3158,
    " heart": 3159,
    " hope": 3160,
    " indic": 3161,
    " investment": 3162,
    " joke": 3163,
    " mistakes": 3164,
    " ones": 3165,
    " outcomes": 3166,
    " period": 3167,
    " predict": 3168,
    " promoting": 3169,
    " rate": 3170,
    " sun": 3171,
    " sales": 3172,
    " solve": 3173,
    " tips": 3174,
    " talk": 3175,
    " typically": 3176,
    ")**": 3177,
    "</": 3178,
    "On": 3179,
    "ann": 3180,
    "aps": 3181,
    "ership": 3182,
    "ga": 3183,
    "sych": 3184,
    "ups": 3185,
    "uy": 3186,
    "ules": 3187,
    "user": 3188,
    " 6": 3189,
    " Don": 3190,
    " Feeling": 3191,
    " Hello": 3192,
    " algorithms": 3193,
    " anxiety": 3194,
    " ba": 3195,
    " bot": 3196,
    " bias": 3197,
    " cou": 3198,
    " column": 3199,
    " daily": 3200,
    " dise": 3201,
    " fundam": 3202,
    " guidance": 3203,
    " harm": 3204,
    " happen": 3205,
    " instead": 3206,
    " kit": 3207,
    " ment": 3208,
    " mention": 3209,
    " must": 3210,
    " prep": 3211,
    " processing": 3212,
    " radi": 3213,
    " relationship": 3214,
    " school": 3215,
    " sakta": 3216,
    " status": 3217,
    " ter": 3218,
    " tim": 3219,
    " treat": 3220,
    " types": 3221,
    " unsupervised": 3222,
    " updated": 3223,
    "0s": 3224,
    "87": 3225,
    "ID": 3226,
    "arg": 3227,
    "athy": 3228,
    "coming": 3229,
    "duce": 3230,
    "fer": 3231,
    "ference": 3232,
    "flation": 3233,
    "icit": 3234,
    "inating": 3235,
    "istic": 3236,
    "lying": 3237,
    "oles": 3238,
    "rier": 3239,
    "ront": 3240,
    " Q": 3241,
    " <<": 3242,
    " Me": 3243,
    " York": 3244,
    " [],": 3245,
    " affect": 3246,
    " align": 3247,
    " attractions": 3248,
    " availability": 3249,
    " bit": 3250,
    " chaotic": 3251,
    " creativity": 3252,
    " drive": 3253,
    " effects": 3254,
    " failed": 3255,
    " fram": 3256,
    " frequ": 3257,
    " ge": 3258,
    " higher": 3259,
    " histor": 3260,
    " immedi": 3261,
    " jug": 3262,
    " lot": 3263,
    " offers": 3264,
    " operations": 3265,
    " park": 3266,
    " parent": 3267,
    " path": 3268,
    " prim": 3269,
    " sharing": 3270,
    " society": 3271,
    " solutions": 3272,
    " stream": 3273,
    " tack": 3274,
    " thread": 3275,
    " vo": 3276,
    " valu": 3277,
    " virt": 3278,
    " whe": 3279,
    " wide": 3280,
    "):**": 3281,
    "Em": 3282,
    "Re": 3283,
    "_call": 3284,
    "_for_t": 3285,
    "ask": 3286,
    "board": 3287,
    "cent": 3288,
    "cks": 3289,
    "ez": 3290,
    "elebrate": 3291,
    "erve": 3292,
    "face": 3293,
    "ftware": 3294,
    "hor": 3295,
    "icle": 3296,
    "itely": 3297,
    "oor": 3298,
    "obile": 3299,
    "ocation": 3300,
    "ones": 3301,
    "pecially": 3302,
    "rics": 3303,
    "ring": 3304,
    "uous": 3305,
    "vement": 3306,
    "ww": 3307,
    "ynt": 3308,
    "ो?": 3309,
    " 8": 3310,
    " CO": 3311,
    " Ident": 3312,
    " Indian": 3313,
    " Maybe": 3314,
    " Of": 3315,
    " adapt": 3316,
    " amount": 3317,
    " authentic": 3318,
    " bab": 3319,
    " body": 3320,
    " backgrou": 3321,
    " cre": 3322,
    " calculate": 3323,
    " child": 3324,
    " color": 3325,
    " compon": 3326,
    " depe": 3327,
    " detailed": 3328,
    " exploring": 3329,
    " fair": 3330,
    " feature": 3331,
    " fundamental": 3332,
    " get_": 3333,
    " hi": 3334,
    " highlight": 3335,
    " identity": 3336,
    " line": 3337,
    " look": 3338,
    " max": 3339,
    " matters": 3340,
    " near": 3341,
    " objects": 3342,
    " overwhelming": 3343,
    " port": 3344,
    " reci": 3345,
    " recy": 3346,
    " required": 3347,
    " requirements": 3348,
    " signal": 3349,
    " special": 3350,
    " stor": 3351,
    " storm": 3352,
    " started": 3353,
    " struggling": 3354,
    " tum": 3355,
    " whole": 3356,
    "'d": 3357,
    "How": 3358,
    "ML": 3359,
    "actions": 3360,
    "asc": 3361,
    "ato": 3362,
    "categ": 3363,
    "ched": 3364,
    "creased": 3365,
    "dditional": 3366,
    "eled": 3367,
    "eur": 3368,
    "ently": 3369,
    "erson": 3370,
    "ission": 3371,
    "itle": 3372,
    "mar": 3373,
    "pri": 3374,
    "query": 3375,
    "rust": 3376,
    "resh": 3377,
    "side": 3378,
    " व": 3379,
    " Create": 3380,
    " Instagram": 3381,
    " Learn": 3382,
    " Se": 3383,
    " Tra": 3384,
    " Trans": 3385,
    " Ut": 3386,
    " Your": 3387,
    " addresses": 3388,
    " away": 3389,
    " basic": 3390,
    " classes": 3391,
    " determine": 3392,
    " distribut": 3393,
    " elements": 3394,
    " enable": 3395,
    " engage": 3396,
    " environmental": 3397,
    " express": 3398,
    " explan": 3399,
    " faced": 3400,
    " forms": 3401,
    " gain": 3402,
    " government": 3403,
    " hom": 3404,
    " having": 3405,
    " helping": 3406,
    " kuch": 3407,
    " libr": 3408,
    " limited": 3409,
    " mass": 3410,
    " memory": 3411,
    " mentioned": 3412,
    " networks": 3413,
    " phir": 3414,
    " rent": 3415,
    " record": 3416,
    " resource": 3417,
    " schedule": 3418,
    " teacher": 3419,
    " tok": 3420,
    " year": 3421,
    "Remember": 3422,
    "aches": 3423,
    "cling": 3424,
    "forts": 3425,
    "gg": 3426,
    "head": 3427,
    "idst": 3428,
    "impan": 3429,
    "impanze": 3430,
    "itation": 3431,
    "mod": 3432,
    "mun": 3433,
    "orld": 3434,
    "oster": 3435,
    "quotes": 3436,
    "raction": 3437,
    "reneur": 3438,
    "repreneur": 3439,
    "tool_call": 3440,
    "wit": 3441,
    "yada": 3442,
    "ः।": 3443,
    " च": 3444,
    " 12": 3445,
    " APIs": 3446,
    " American": 3447,
    " Encourage": 3448,
    " Instead": 3449,
    " active": 3450,
    " assistance": 3451,
    " calmly": 3452,
    " climate": 3453,
    " conscious": 3454,
    " consum": 3455,
    " dra": 3456,
    " efforts": 3457,
    " encourage": 3458,
    " existing": 3459,
    " fit": 3460,
    " initial": 3461,
    " interact": 3462,
    " neural": 3463,
    " pad": 3464,
    " purch": 3465,
    " parents": 3466,
    " particular": 3467,
    " princi": 3468,
    " season": 3469,
    " sec": 3470,
    " soil": 3471,
    " sports": 3472,
    " strengths": 3473,
    " structures": 3474,
    " takes": 3475,
    " voice": 3476,
    " weeks": 3477,
    "EO": 3478,
    "SQL": 3479,
    "_pro": 3480,
    "`,": 3481,
    "aim": 3482,
    "arr": 3483,
    "atives": 3484,
    "cer": 3485,
    "ech": 3486,
    "empt": 3487,
    "erary": 3488,
    "gar": 3489,
    "iful": 3490,
    "iles": 3491,
    "izes": 3492,
    "lines": 3493,
    "oss": 3494,
    "rable": 3495,
    "reed": 3496,
    "tend": 3497,
    " \n\n": 3498,
    " ing": 3499,
    " Call": 3500,
    " DNA": 3501,
    " HT": 3502,
    " Hi": 3503,
    " Market": 3504,
    " Pat": 3505,
    " age": 3506,
    " average": 3507,
    " ampl": 3508,
    " anim": 3509,
    " aspects": 3510,
    " awareness": 3511,
    " buy": 3512,
    " beautiful": 3513,
    " birth": 3514,
    " capt": 3515,
    " careful": 3516,
    " connections": 3517,
    " date": 3518,
    " datas": 3519,
    " deeper": 3520,
    " developed": 3521,
    " dire": 3522,
    " digital": 3523,
    " emotional": 3524,
    " entertain": 3525,
    " equations": 3526,
    " especially": 3527,
    " fluor": 3528,
    " frame": 3529,
    " incorpor": 3530,
    " latitude": 3531,
    " lay": 3532,
    " link": 3533,
    " longitude": 3534,
    " mathematics": 3535,
    " orig": 3536,
    " psych": 3537,
    " prote": 3538,
    " properties": 3539,
    " quick": 3540,
    " rich": 3541,
    " say": 3542,
    " sens": 3543,
    " signals": 3544,
    " supervised": 3545,
    " terms": 3546,
    " trained": 3547,
    " transform": 3548,
    " variable": 3549,
    " wind": 3550,
    " worth": 3551,
    "FT": 3552,
    "This": 3553,
    "Un": 3554,
    "Wh": 3555,
    "_by_": 3556,
    "bra": 3557,
    "compar": 3558,
    "den": 3559,
    "description": 3560,
    "ially": 3561,
    "ift": 3562,
    "inks": 3563,
    "ko": 3564,
    "ners": 3565,
    "osing": 3566,
    "plain": 3567,
    "ton": 3568,
    "ternal": 3569,
    "urther": 3570,
    "ush": 3571,
    "ः,": 3572,
    " Af": 3573,
    " Are": 3574,
    " Eng": 3575,
    " Post": 3576,
    " Reg": 3577,
    " US": 3578,
    " aap": 3579,
    " abs": 3580,
    " appropri": 3581,
    " brain": 3582,
    " brands": 3583,
    " chaos": 3584,
    " clean": 3585,
    " collection": 3586,
    " comes": 3587,
    " coordinates": 3588,
    " created": 3589,
    " dynam": 3590,
    " didn": 3591,
    " disco": 3592,
    " distance": 3593,
    " document": 3594,
    " education": 3595,
    " electric": 3596,
    " employees": 3597,
    " engine": 3598,
    " ensuring": 3599,
    " fasc": 3600,
    " forest": 3601,
    " harmon": 3602,
    " instrument": 3603,
    " kh": 3604,
    " kindness": 3605,
    " listen": 3606,
    " locations": 3607,
    " measure": 3608,
    " momentum": 3609,
    " perspective": 3610,
    " phot": 3611,
    " plans": 3612,
    " property": 3613,
    " quality": 3614,
    " sor": 3615,
    " symbol": 3616,
    " tell": 3617,
    " tree": 3618,
    " token": 3619,
    " universe": 3620,
    " wa": 3621,
    " करन": 3622,
    "://": 3623,
    "GET": 3624,
    "_for_c": 3625,
    "au": 3626,
    "ashion": 3627,
    "atis": 3628,
    "ced": 3629,
    "certain": 3630,
    "clude": 3631,
    "comp": 3632,
    "ecurity": 3633,
    "eras": 3634,
    "eria": 3635,
    "ername": 3636,
    "hold": 3637,
    "illboard": 3638,
    "ites": 3639,
    "itual": 3640,
    "kho": 3641,
    "leep": 3642,
    "making": 3643,
    "mit": 3644,
    "ng": 3645,
    "num": 3646,
    "ours": 3647,
    "quality": 3648,
    "uction": 3649,
    "ulture": 3650,
    "username": 3651,
    "utes": 3652,
    "vantages": 3653,
    "ें।": 3654,
    " Alex": 3655,
    " Netw": 3656,
    " Plato": 3657,
    " Since": 3658,
    " Spe": 3659,
    " There": 3660,
    " amaz": 3661,
    " appe": 3662,
    " baby": 3663,
    " blog": 3664,
    " books": 3665,
    " breathe": 3666,
    " camp": 3667,
    " charging": 3668,
    " children": 3669,
    " choose": 3670,
    " creative": 3671,
    " dest": 3672,
    " diet": 3673,
    " doesn": 3674,
    " enh": 3675,
    " facilit": 3676,
    " giving": 3677,
    " gets": 3678,
    " immediately": 3679,
    " inspir": 3680,
    " mis": 3681,
    " never": 3682,
    " old": 3683,
    " partner": 3684,
    " perm": 3685,
    " projects": 3686,
    " quickly": 3687,
    " rahe": 3688,
    " returns": 3689,
    " synt": 3690,
    " select": 3691,
    " sorry": 3692,
    " specified": 3693,
    " string": 3694,
    " sustainable": 3695,
    " tele": 3696,
    " teams": 3697,
    " transport": 3698,
    " zyada": 3699,
    " मम": 3700,
    "(\"": 3701,
    "))": 3702,
    "...": 3703,
    "Create": 3704,
    "TeX": 3705,
    "_of": 3706,
    "_for_f": 3707,
    "add": 3708,
    "antic": 3709,
    "atisf": 3710,
    "azon": 3711,
    "cience": 3712,
    "default": 3713,
    "eds": 3714,
    "elt": 3715,
    "eries": 3716,
    "erver": 3717,
    "going": 3718,
    "ike": 3719,
    "ipp": 3720,
    "ides": 3721,
    "imum": 3722,
    "ologies": 3723,
    "oping": 3724,
    "ording": 3725,
    "ored": 3726,
    "ouse": 3727,
    "ping": 3728,
    "racy": 3729,
    "rammar": 3730,
    "rayer": 3731,
    "redients": 3732,
    "response": 3733,
    "sequ": 3734,
    "ultural": 3735,
    "void": 3736,
    " Creat": 3737,
    " Page": 3738,
    " Plan": 3739,
    " Thank": 3740,
    " alread": 3741,
    " already": 3742,
    " among": 3743,
    " answer": 3744,
    " apps": 3745,
    " assign": 3746,
    " autom": 3747,
    " board": 3748,
    " cand": 3749,
    " constant": 3750,
    " contribute": 3751,
    " correspon": 3752,
    " deal": 3753,
    " define": 3754,
    " diagn": 3755,
    " dost": 3756,
    " download": 3757,
    " emergency": 3758,
    " expertise": 3759,
    " inclus": 3760,
    " ingredients": 3761,
    " issue": 3762,
    " move": 3763,
    " numer": 3764,
    " offic": 3765,
    " outcome": 3766,
    " overcome": 3767,
    " pur": 3768,
    " recognition": 3769,
    " refers": 3770,
    " reliable": 3771,
    " size": 3772,
    " shape": 3773,
    " student": 3774,
    " tackle": 3775,
    " uncertain": 3776,
    " vol": 3777,
    " veh": 3778,
    " willing": 3779,
    " गय": 3780,
    " बन": 3781,
    "01": 3782,
    "MS": 3783,
    "Over": 3784,
    "Rank": 3785,
    "_g": 3786,
    "agon": 3787,
    "alle": 3788,
    "bersecurity": 3789,
    "category": 3790,
    "clusion": 3791,
    "dum": 3792,
    "htt": 3793,
    "ients": 3794,
    "is_id": 3795,
    "owered": 3796,
    "ractice": 3797,
    "ralized": 3798,
    "reet": 3799,
    "val": 3800,
    "way": 3801,
    "}}": 3802,
    "\n\n    ": 3803,
    " इ": 3804,
    " Ass": 3805,
    " Consider": 3806,
    " EV": 3807,
    " HTML": 3808,
    " Red": 3809,
    " United": 3810,
    " acknow": 3811,
    " appropriate": 3812,
    " author": 3813,
    " battery": 3814,
    " candid": 3815,
    " categories": 3816,
    " clarity": 3817,
    " ded": 3818,
    " encoura": 3819,
    " evol": 3820,
    " favor": 3821,
    " felt": 3822,
    " flex": 3823,
    " fresh": 3824,
    " further": 3825,
    " gam": 3826,
    " him": 3827,
    " habits": 3828,
    " hear": 3829,
    " historical": 3830,
    " hote": 3831,
    " item": 3832,
    " keyword": 3833,
    " memes": 3834,
    " movie": 3835,
    " myself": 3836,
    " negative": 3837,
    " noise": 3838,
    " patent": 3839,
    " prevent": 3840,
    " programs": 3841,
    " protect": 3842,
    " repe": 3843,
    " regulations": 3844,
    " resil": 3845,
    " sem": 3846,
    " security": 3847,
    " separ": 3848,
    " shows": 3849,
    " stronger": 3850,
    " styles": 3851,
    " surrou": 3852,
    " tak": 3853,
    " thems": 3854,
    " themselves": 3855,
    " traffic": 3856,
    " whether": 3857,
    " इत": 3858,
    " हल": 3859,
    "AI": 3860,
    "Agar": 3861,
    "Le": 3862,
    "aya": 3863,
    "ago": 3864,
    "ague": 3865,
    "alls": 3866,
    "anguage": 3867,
    "aye": 3868,
    "bot": 3869,
    "core": 3870,
    "down": 3871,
    "essage": 3872,
    "ests": 3873,
    "fact": 3874,
    "flict": 3875,
    "hiye": 3876,
    "ium": 3877,
    "iver": 3878,
    "interest": 3879,
    "lection": 3880,
    "ope": 3881,
    "ography": 3882,
    "optional": 3883,
    "real": 3884,
    "rite": 3885,
    "rome": 3886,
    "team": 3887,
    " 9": 3888,
    " Z": 3889,
    " id": 3890,
    " 15": 3891,
    " Case": 3892,
    " Explain": 3893,
    " Med": 3894,
    " Pr": 3895,
    " San": 3896,
    " Sure": 3897,
    " Stud": 3898,
    " Who": 3899,
    " aim": 3900,
    " above": 3901,
    " allowing": 3902,
    " amazing": 3903,
    " attempt": 3904,
    " bus": 3905,
    " cam": 3906,
    " card": 3907,
    " calories": 3908,
    " carbon": 3909,
    " clust": 3910,
    " confid": 3911,
    " contact": 3912,
    " correct": 3913,
    " creation": 3914,
    " dog": 3915,
    " definitely": 3916,
    " demand": 3917,
    " enough": 3918,
    " entire": 3919,
    " entities": 3920,
    " entrepreneur": 3921,
    " exec": 3922,
    " external": 3923,
    " front": 3924,
    " fru": 3925,
    " fascinating": 3926,
    " force": 3927,
    " happiness": 3928,
    " improvement": 3929,
    " includes": 3930,
    " instit": 3931,
    " interv": 3932,
    " interactions": 3933,
    " juggle": 3934,
    " length": 3935,
    " led": 3936,
    " little": 3937,
    " neighb": 3938,
    " original": 3939,
    " players": 3940,
    " playlist": 3941,
    " rhy": 3942,
    " rules": 3943,
    " reasons": 3944,
    " represents": 3945,
    " representation": 3946,
    " responsible": 3947,
    " software": 3948,
    " super": 3949,
    " subset": 3950,
    " teaching": 3951,
    " technologies": 3952,
    " themes": 3953,
    " transportation": 3954,
    " underlying": 3955,
    " validate": 3956,
    " wonder": 3957,
    " yet": 3958,
    "!\"": 3959,
    "*(": 3960,
    "An": 3961,
    "BT": 3962,
    "Be": 3963,
    "Key": 3964,
    "LP": 3965,
    "_and": 3966,
    "_new": 3967,
    "_for_b": 3968,
    "amples": 3969,
    "ators": 3970,
    "ava": 3971,
    "che": 3972,
    "encies": 3973,
    "exic": 3974,
    "ho": 3975,
    "ints": 3976,
    "issions": 3977,
    "ithm": 3978,
    "nam": 3979,
    "oda": 3980,
    "oney": 3981,
    "pa": 3982,
    "page": 3983,
    "point": 3984,
    "plication": 3985,
    "rican": 3986,
    "rick": 3987,
    "urally": 3988,
    " et": 3989,
    " ur": 3990,
    " य": 3991,
    " ✅": 3992,
    " 16": 3993,
    " Col": 3994,
    " Educ": 3995,
    " Ens": 3996,
    " Football": 3997,
    " Fou": 3998,
    " Fr": 3999,
    " Inc": 4000,
    " Keep": 4001,
    " Man": 4002,
    " Nam": 4003,
    " President": 4004,
    " Time": 4005,
    " Try": 4006,
    " Transform": 4007,
    " against": 4008,
    " analyt": 4009,
    " analyz": 4010,
    " arithm": 4011,
    " arithmetic": 4012,
    " assess": 4013,
    " beauty": 4014,
    " caus": 4015,
    " chahiye": 4016,
    " choices": 4017,
    " chocolate": 4018,
    " collaboration": 4019,
    " comfortable": 4020,
    " comma": 4021,
    " commit": 4022,
    " competition": 4023,
    " complete": 4024,
    " conflict": 4025,
    " constr": 4026,
    " connected": 4027,
    " consciousness": 4028,
    " considered": 4029,
    " couldn": 4030,
    " dee": 4031,
    " deeply": 4032,
    " describe": 4033,
    " ever": 4034,
    " ekdum": 4035,
    " exactly": 4036,
    " foods": 4037,
    " hours": 4038,
    " hotels": 4039,
    " impacts": 4040,
    " jaata": 4041,
    " kam": 4042,
    " lag": 4043,
    " land": 4044,
    " levels": 4045,
    " lives": 4046,
    " manager": 4047,
    " manageable": 4048,
    " measures": 4049,
    " medical": 4050,
    " messages": 4051,
    " moving": 4052,
    " motivation": 4053,
    " nu": 4054,
    " personalized": 4055,
    " perspectives": 4056,
    " polit": 4057,
    " preferences": 4058,
    " press": 4059,
    " predictions": 4060,
    " profession": 4061,
    " reality": 4062,
    " receive": 4063,
    " resol": 4064,
    " resilience": 4065,
    " risks": 4066,
    " satisf": 4067,
    " sl": 4068,
    " sort": 4069,
    " series": 4070,
    " smaller": 4071,
    " speak": 4072,
    " specifying": 4073,
    " subject": 4074,
    " town": 4075,
    " valuable": 4076,
    " worrying": 4077,
    "\"},": 4078,
    "23": 4079,
    "2022": 4080,
    "32": 4081,
    "MA": 4082,
    "So": 4083,
    "_description": 4084,
    "adem": 4085,
    "agonist": 4086,
    "api_description": 4087,
    "api_name": 4088,
    "arc": 4089,
    "arth": 4090,
    "aster": 4091,
    "att": 4092,
    "bal": 4093,
    "cal": 4094,
    "category_name": 4095,
    "class": 4096,
    "comparable": 4097,
    "ffective": 4098,
    "ges": 4099,
    "hus": 4100,
    "idation": 4101,
    "ids": 4102,
    "imize": 4103,
    "incomparable": 4104,
    "inerary": 4105,
    "ipment": 4106,
    "ird": 4107,
    "ired_parameters": 4108,
    "ision": 4109,
    "iveness": 4110,
    "method": 4111,
    "not": 4112,
    "oin": 4113,
    "over": 4114,
    "oken": 4115,
    "ootprint": 4116,
    "optional_parameters": 4117,
    "python": 4118,
    "ption": 4119,
    "rang": 4120,
    "required_parameters": 4121,
    "rict": 4122,
    "riend": 4123,
    "ropy": 4124,
    "ums": 4125,
    "unique": 4126,
    "vertising": 4127,
    " System": 4128,
    " Us": 4129,
    "   ": 4130,
    " AM": 4131,
    " App": 4132,
    " Bit": 4133,
    " Bra": 4134,
    " Bitcoin": 4135,
    " China": 4136,
    " Fourier": 4137,
    " Identify": 4138,
    " Intelligence": 4139,
    " Marketing": 4140,
    " Part": 4141,
    " SEO": 4142,
    " additional": 4143,
    " anyone": 4144,
    " attract": 4145,
    " bach": 4146,
    " bound": 4147,
    " cogn": 4148,
    " cost": 4149,
    " cau": 4150,
    " caught": 4151,
    " chann": 4152,
    " chimpanze": 4153,
    " compan": 4154,
    " companies": 4155,
    " confidence": 4156,
    " contain": 4157,
    " corresponding": 4158,
    " easier": 4159,
    " empt": 4160,
    " empathy": 4161,
    " establish": 4162,
    " exercises": 4163,
    " extract": 4164,
    " football": 4165,
    " forecast": 4166,
    " functions": 4167,
    " hid": 4168,
    " implications": 4169,
    " implementation": 4170,
    " increased": 4171,
    " initi": 4172,
    " joy": 4173,
    " links": 4174,
    " load": 4175,
    " mag": 4176,
    " mile": 4177,
    " meeting": 4178,
    " minutes": 4179,
    " motion": 4180,
    " narr": 4181,
    " nahi": 4182,
    " named": 4183,
    " outside": 4184,
    " pages": 4185,
    " pair": 4186,
    " pan": 4187,
    " posts": 4188,
    " production": 4189,
    " processes": 4190,
    " productivity": 4191,
    " protagonist": 4192,
    " qual": 4193,
    " ready": 4194,
    " recycling": 4195,
    " source": 4196,
    " safe": 4197,
    " shap": 4198,
    " showc": 4199,
    " simpl": 4200,
    " simply": 4201,
    " smo": 4202,
    " spread": 4203,
    " states": 4204,
    " storage": 4205,
    " strand": 4206,
    " temper": 4207,
    " totally": 4208,
    " unt": 4209,
    " username": 4210,
    " walk": 4211,
    " weak": 4212,
    " young": 4213,
    "18": 4214,
    "78": 4215,
    "ED": 4216,
    "Increased": 4217,
    "Ne": 4218,
    "Overall": 4219,
    "What": 4220,
    "aign": 4221,
    "cipl": 4222,
    "compl": 4223,
    "cond": 4224,
    "craper": 4225,
    "enn": 4226,
    "example": 4227,
    "file": 4228,
    "friend": 4229,
    "from": 4230,
    "fluenc": 4231,
    "gin": 4232,
    "how": 4233,
    "hereum": 4234,
    "ied": 4235,
    "icago": 4236,
    "ifier": 4237,
    "ifications": 4238,
    "inated": 4239,
    "iny": 4240,
    "ival": 4241,
    "ivil": 4242,
    "ohn": 4243,
    "osp": 4244,
    "oul": 4245,
    "powered": 4246,
    "pendence": 4247,
    "ptions": 4248,
    "rist": 4249,
    "rel": 4250,
    "riven": 4251,
    "stablish": 4252,
    "ufact": 4253,
    "vements": 4254,
    "रश": 4255,
    " eth": 4256,
    " Act": 4257,
    " Both": 4258,
    " Cal": 4259,
    " COV": 4260,
    " COVID": 4261,
    " Comput": 4262,
    " Euro": 4263,
    " God": 4264,
    " Great": 4265,
    " Networks": 4266,
    " One": 4267,
    " Or": 4268,
    " Out": 4269,
    " Pe": 4270,
    " Per": 4271,
    " PageRank": 4272,
    " Road": 4273,
    " Silk": 4274,
    " abilities": 4275,
    " according": 4276,
    " accurately": 4277,
    " adopt": 4278,
    " block": 4279,
    " brings": 4280,
    " broad": 4281,
    " busy": 4282,
    " cooking": 4283,
    " cup": 4284,
    " calmness": 4285,
    " characteristics": 4286,
    " colors": 4287,
    " compass": 4288,
    " complet": 4289,
    " condition": 4290,
    " conservation": 4291,
    " cryptocurrencies": 4292,
    " description": 4293,
    " developers": 4294,
    " discussions": 4295,
    " ep": 4296,
    " early": 4297,
    " empty": 4298,
    " enhance": 4299,
    " enthus": 4300,
    " enthusi": 4301,
    " explaining": 4302,
    " farm": 4303,
    " flight": 4304,
    " gas": 4305,
    " grammar": 4306,
    " ideal": 4307,
    " insights": 4308,
    " institutions": 4309,
    " involved": 4310,
    " kya": 4311,
    " labels": 4312,
    " leg": 4313,
    " lekin": 4314,
    " letting": 4315,
    " liter": 4316,
    " loved": 4317,
    " maj": 4318,
    " money": 4319,
    " meal": 4320,
    " modify": 4321,
    " months": 4322,
    " nearby": 4323,
    " opinions": 4324,
    " organizations": 4325,
    " ours": 4326,
    " ourselves": 4327,
    " pain": 4328,
    " passion": 4329,
    " phr": 4330,
    " philosophy": 4331,
    " rise": 4332,
    " regard": 4333,
    " regularly": 4334,
    " relax": 4335,
    " remains": 4336,
    " responses": 4337,
    " reviews": 4338,
    " since": 4339,
    " slow": 4340,
    " said": 4341,
    " sentiment": 4342,
    " smooth": 4343,
    " sounds": 4344,
    " spir": 4345,
    " starting": 4346,
    " sup": 4347,
    " tail": 4348,
    " tone": 4349,
    " talking": 4350,
    " tests": 4351,
    " thoughts": 4352,
    " total": 4353,
    " tourism": 4354,
    " update": 4355,
    " variety": 4356,
    " version": 4357,
    " virtual": 4358,
    "16": 4359,
    "54": 4360,
    "Client": 4361,
    "FL": 4362,
    "It": 4363,
    "OO": 4364,
    "US": 4365,
    "_con": 4366,
    "_ind": 4367,
    "_url": 4368,
    "aving": 4369,
    "abhi": 4370,
    "aged": 4371,
    "aph": 4372,
    "apping": 4373,
    "ccur": 4374,
    "cha": 4375,
    "chang": 4376,
    "cloud": 4377,
    "driven": 4378,
    "ezer": 4379,
    "ians": 4380,
    "icing": 4381,
    "isco": 4382,
    "ived": 4383,
    "keyword": 4384,
    "like": 4385,
    "ma": 4386,
    "min": 4387,
    "my_list": 4388,
    "ny": 4389,
    "onstr": 4390,
    "ondon": 4391,
    "ops": 4392,
    "osed": 4393,
    "osition": 4394,
    "oti": 4395,
    "oun": 4396,
    "pag": 4397,
    "rate": 4398,
    "rive": 4399,
    "room": 4400,
    "rypto": 4401,
    "son": 4402,
    "sum": 4403,
    "unctional": 4404,
    "uration": 4405,
    "uth": 4406,
    "मब": 4407,
    " '{": 4408,
    " Bl": 4409,
    " Earth": 4410,
    " Et": 4411,
    " Ensure": 4412,
    " Ethereum": 4413,
    " Link": 4414,
    " Mo": 4415,
    " National": 4416,
    " Off": 4417,
    " Once": 4418,
    " States": 4419,
    " Team": 4420,
    " With": 4421,
    " altern": 4422,
    " apply": 4423,
    " ban": 4424,
    " biases": 4425,
    " calculus": 4426,
    " critical": 4427,
    " cryptocurrency": 4428,
    " din": 4429,
    " depending": 4430,
    " desires": 4431,
    " detection": 4432,
    " effort": 4433,
    " element": 4434,
    " entrepreneurs": 4435,
    " equipment": 4436,
    " existence": 4437,
    " explanations": 4438,
    " field": 4439,
    " fields": 4440,
    " fulfillment": 4441,
    " green": 4442,
    " greater": 4443,
    " hurt": 4444,
    " intent": 4445,
    " least": 4446,
    " literature": 4447,
    " miss": 4448,
    " mechanics": 4449,
    " neur": 4450,
    " occur": 4451,
    " playing": 4452,
    " policy": 4453,
    " prepared": 4454,
    " priv": 4455,
    " primary": 4456,
    " recommendations": 4457,
    " repeating": 4458,
    " requests": 4459,
    " responsibility": 4460,
    " sam": 4461,
    " science": 4462,
    " sleep": 4463,
    " scal": 4464,
    " segment": 4465,
    " sequ": 4466,
    " seeking": 4467,
    " significance": 4468,
    " solution": 4469,
    " speaking": 4470,
    " stack": 4471,
    " stations": 4472,
    " tables": 4473,
    " tag": 4474,
    " term": 4475,
    " turn": 4476,
    " treatment": 4477,
    " until": 4478,
    " upcoming": 4479,
    " vacc": 4480,
    " wellness": 4481,
    " तव": 4482,
    ".**": 4483,
    "345": 4484,
    "?\"": 4485,
    "Ap": 4486,
    "GBT": 4487,
    "Get": 4488,
    "NG": 4489,
    "Pl": 4490,
    "Su": 4491,
    "WA": 4492,
    "We": 4493,
    "_a": 4494,
    "aimon": 4495,
    "amil": 4496,
    "arri": 4497,
    "astic": 4498,
    "bility": 4499,
    "bitals": 4500,
    "clusive": 4501,
    "data": 4502,
    "ennis": 4503,
    "enture": 4504,
    "ersonal": 4505,
    "ged": 4506,
    "hood": 4507,
    "holders": 4508,
    "https": 4509,
    "iency": 4510,
    "icious": 4511,
    "isk": 4512,
    "me": 4513,
    "mon": 4514,
    "mort": 4515,
    "munity": 4516,
    "onom": 4517,
    "orrow": 4518,
    "oses": 4519,
    "ourage": 4520,
    "pret": 4521,
    "pendent": 4522,
    "places": 4523,
    "psych": 4524,
    "range": 4525,
    "rical": 4526,
    "run": 4527,
    "reel": 4528,
    "reams": 4529,
    "risis": 4530,
    "sequences": 4531,
    "uis": 4532,
    "udaimon": 4533,
    "ulate": 4534,
    "una": 4535,
    "venue": 4536,
    "ypes": 4537,
    " x": 4538,
    " ==": 4539,
    " Aut": 4540,
    " Analy": 4541,
    " Ang": 4542,
    " Angel": 4543,
    " City": 4544,
    " Chuck": 4545,
    " LED": 4546,
    " LGBT": 4547,
    " London": 4548,
    " LGBTQ": 4549,
    " Learning": 4550,
    " Mexic": 4551,
    " Norris": 4552,
    " North": 4553,
    " Par": 4554,
    " Postgre": 4555,
    " PostgreSQL": 4556,
    " TV": 4557,
    " Utah": 4558,
    " [{\"": 4559,
    " ahead": 4560,
    " academ": 4561,
    " accompl": 4562,
    " actually": 4563,
    " artists": 4564,
    " article": 4565,
    " assum": 4566,
    " birthday": 4567,
    " civil": 4568,
    " core": 4569,
    " courage": 4570,
    " campaign": 4571,
    " church": 4572,
    " clustering": 4573,
    " command": 4574,
    " component": 4575,
    " connection": 4576,
    " continue": 4577,
    " cultiv": 4578,
    " currency": 4579,
    " cycle": 4580,
    " diagram": 4581,
    " direction": 4582,
    " electrons": 4583,
    " emissions": 4584,
    " emphasis": 4585,
    " expens": 4586,
    " fem": 4587,
    " fear": 4588,
    " fluently": 4589,
    " followers": 4590,
    " growing": 4591,
    " hoga": 4592,
    " host": 4593,
    " handling": 4594,
    " hidden": 4595,
    " imagination": 4596,
    " incredi": 4597,
    " industries": 4598,
    " itinerary": 4599,
    " koi": 4600,
    " labeled": 4601,
    " midst": 4602,
    " maximum": 4603,
    " motivated": 4604,
    " movement": 4605,
    " national": 4606,
    " numerous": 4607,
    " nutrit": 4608,
    " observation": 4609,
    " office": 4610,
    " prayer": 4611,
    " places": 4612,
    " player": 4613,
    " pret": 4614,
    " pressure": 4615,
    " principles": 4616,
    " prob": 4617,
    " purchase": 4618,
    " quiet": 4619,
    " rule": 4620,
    " race": 4621,
    " replay": 4622,
    " reput": 4623,
    " road": 4624,
    " route": 4625,
    " sus": 4626,
    " search_": 4627,
    " setting": 4628,
    " speed": 4629,
    " stop": 4630,
    " supp": 4631,
    " suggestions": 4632,
    " tech": 4633,
    " visual": 4634,
    " watch": 4635,
    " weakness": 4636,
    " {'": 4637,
    "()`": 4638,
    "85": 4639,
    "Cont": 4640,
    "Length": 4641,
    "Me": 4642,
    "Online": 4643,
    "SP": 4644,
    "These": 4645,
    "_product": 4646,
    "aun": 4647,
    "ajh": 4648,
    "aphore": 4649,
    "arah": 4650,
    "atus": 4651,
    "cm": 4652,
    "cean": 4653,
    "edding": 4654,
    "ero": 4655,
    "fs": 4656,
    "friendly": 4657,
    "gram": 4658,
    "hot": 4659,
    "hips": 4660,
    "imately": 4661,
    "istan": 4662,
    "jokes": 4663,
    "ki": 4664,
    "level": 4665,
    "ox": 4666,
    "orn": 4667,
    "outube": 4668,
    "rated": 4669,
    "rictions": 4670,
    "ti": 4671,
    "ulner": 4672,
    "version": 4673,
    "youtube": 4674,
    " ult": 4675,
    " द": 4676,
    " Air": 4677,
    " Avoid": 4678,
    " Chicago": 4679,
    " Comp": 4680,
    " Content": 4681,
    " Europe": 4682,
    " Finally": 4683,
    " Lank": 4684,
    " Mon": 4685,
    " NFT": 4686,
    " Sim": 4687,
    " Sp": 4688,
    " Using": 4689,
    " Write": 4690,
    " accordingly": 4691,
    " agar": 4692,
    " ann": 4693,
    " audio": 4694,
    " authenticity": 4695,
    " bib": 4696,
    " began": 4697,
    " believed": 4698,
    " cases": 4699,
    " cannot": 4700,
    " carefully": 4701,
    " chain": 4702,
    " completely": 4703,
    " concise": 4704,
    " consistent": 4705,
    " contract": 4706,
    " conversations": 4707,
    " conversion": 4708,
    " demonstr": 4709,
    " describ": 4710,
    " developing": 4711,
    " div": 4712,
    " display": 4713,
    " disease": 4714,
    " driven": 4715,
    " driving": 4716,
    " efficiency": 4717,
    " emails": 4718,
    " emb": 4719,
    " ensures": 4720,
    " evaluate": 4721,
    " expectations": 4722,
    " fail": 4723,
    " five": 4724,
    " four": 4725,
    " facilitate": 4726,
    " formation": 4727,
    " generating": 4728,
    " hob": 4729,
    " hula": 4730,
    " haven": 4731,
    " heav": 4732,
    " highly": 4733,
    " honest": 4734,
    " humor": 4735,
    " implementing": 4736,
    " improving": 4737,
    " influencer": 4738,
    " initiatives": 4739,
    " innovative": 4740,
    " laws": 4741,
    " left": 4742,
    " learned": 4743,
    " mil": 4744,
    " mentor": 4745,
    " mindful": 4746,
    " observ": 4747,
    " phen": 4748,
    " plant": 4749,
    " plants": 4750,
    " revenue": 4751,
    " recipes": 4752,
    " reduction": 4753,
    " release": 4754,
    " resist": 4755,
    " running": 4756,
    " sess": 4757,
    " saw": 4758,
    " servers": 4759,
    " stake": 4760,
    " suggests": 4761,
    " tennis": 4762,
    " teach": 4763,
    " theme": 4764,
    " transpa": 4765,
    " trend": 4766,
    " updates": 4767,
    " vulner": 4768,
    " visit": 4769,
    " week": 4770,
    "123": 4771,
    "50": 4772,
    "77": 4773,
    "88": 4774,
    "90": 4775,
    "Book": 4776,
    "But": 4777,
    "EST": 4778,
    "NFL": 4779,
    "RING": 4780,
    "STRING": 4781,
    "_re": 4782,
    "_list_for_": 4783,
    "abling": 4784,
    "atic": 4785,
    "chen": 4786,
    "cos": 4787,
    "count": 4788,
    "connect": 4789,
    "context": 4790,
    "elling": 4791,
    "email": 4792,
    "ena": 4793,
    "ensional": 4794,
    "entially": 4795,
    "footprint": 4796,
    "ibTeX": 4797,
    "icated": 4798,
    "image": 4799,
    "inary": 4800,
    "ishing": 4801,
    "items": 4802,
    "nderstand": 4803,
    "ocks": 4804,
    "omin": 4805,
    "ookup": 4806,
    "opping": 4807,
    "otle": 4808,
    "oub": 4809,
    "ows": 4810,
    "pagand": 4811,
    "plate": 4812,
    "ransl": 4813,
    "reak": 4814,
    "rial": 4815,
    "romantic": 4816,
    "td": 4817,
    "uid": 4818,
    "udget": 4819,
    "udaimonia": 4820,
    "useum": 4821,
    "utor": 4822,
    "via": 4823,
    "wber": 4824,
    "witch": 4825,
    "yal": 4826,
    "\n          ": 4827,
    " romantic": 4828,
    " very": 4829,
    " AD": 4830,
    " Art": 4831,
    " Cor": 4832,
    " Computer": 4833,
    " Establish": 4834,
    " Graph": 4835,
    " Health": 4836,
    " Implement": 4837,
    " List": 4838,
    " Lanka": 4839,
    " Mac": 4840,
    " Make": 4841,
    " Many": 4842,
    " Pak": 4843,
    " People": 4844,
    " Provide": 4845,
    " Qu": 4846,
    " Review": 4847,
    " Sri": 4848,
    " State": 4849,
    " Tell": 4850,
    " Test": 4851,
    " accept": 4852,
    " accomplish": 4853,
    " advantages": 4854,
    " alb": 4855,
    " backgrounds": 4856,
    " believe": 4857,
    " celebrate": 4858,
    " calend": 4859,
    " career": 4860,
    " century": 4861,
    " chart": 4862,
    " changing": 4863,
    " choice": 4864,
    " clients": 4865,
    " club": 4866,
    " complexity": 4867,
    " contra": 4868,
    " controvers": 4869,
    " creates": 4870,
    " critic": 4871,
    " dr": 4872,
    " def": 4873,
    " decent": 4874,
    " depression": 4875,
    " descript": 4876,
    " discover": 4877,
    " diseases": 4878,
    " easily": 4879,
    " efficiently": 4880,
    " enabling": 4881,
    " engaged": 4882,
    " exercise": 4883,
    " expand": 4884,
    " foot": 4885,
    " frust": 4886,
    " facing": 4887,
    " female": 4888,
    " fetching": 4889,
    " files": 4890,
    " forget": 4891,
    " foundation": 4892,
    " framework": 4893,
    " frequency": 4894,
    " genu": 4895,
    " glad": 4896,
    " grounded": 4897,
    " guess": 4898,
    " guests": 4899,
    " hol": 4900,
    " habit": 4901,
    " highlighting": 4902,
    " ine": 4903,
    " income": 4904,
    " index": 4905,
    " innovation": 4906,
    " jud": 4907,
    " kha": 4908,
    " kaam": 4909,
    " later": 4910,
    " lif": 4911,
    " library": 4912,
    " major": 4913,
    " manufact": 4914,
    " mindset": 4915,
    " neighbor": 4916,
    " nutri": 4917,
    " ocean": 4918,
    " odd": 4919,
    " operator": 4920,
    " option": 4921,
    " optimize": 4922,
    " organize": 4923,
    " pay": 4924,
    " put": 4925,
    " participate": 4926,
    " physics": 4927,
    " plays": 4928,
    " position": 4929,
    " prec": 4930,
    " pretty": 4931,
    " priorities": 4932,
    " professionals": 4933,
    " quant": 4934,
    " routine": 4935,
    " scient": 4936,
    " scen": 4937,
    " searching": 4938,
    " spiritual": 4939,
    " ste": 4940,
    " stakeholders": 4941,
    " statement": 4942,
    " statistics": 4943,
    " study": 4944,
    " technique": 4945,
    " temperature": 4946,
    " truth": 4947,
    " usually": 4948,
    " vacation": 4949,
    " verify": 4950,
    " weaknesses": 4951,
    " written": 4952,
    " अर": 4953,
    " वक": 4954,
    "25": 4955,
    "40": 4956,
    "BA": 4957,
    "Cons": 4958,
    "Develop": 4959,
    "HD": 4960,
    "SE": 4961,
    "Social": 4962,
    "Stay": 4963,
    "])": 4964,
    "_arg": 4965,
    "_ex": 4966,
    "_ra": 4967,
    "_we": 4968,
    "_news": 4969,
    "ao": 4970,
    "acet": 4971,
    "acebook": 4972,
    "anking": 4973,
    "arrow": 4974,
    "ares": 4975,
    "ban": 4976,
    "brid": 4977,
    "char": 4978,
    "conomic": 4979,
    "dit": 4980,
    "eue": 4981,
    "erce": 4982,
    "gra": 4983,
    "gramming": 4984,
    "iel": 4985,
    "ibr": 4986,
    "ilize": 4987,
    "ino": 4988,
    "iring": 4989,
    "itting": 4990,
    "kend": 4991,
    "land": 4992,
    "linear": 4993,
    "man": 4994,
    "mical": 4995,
    "mission": 4996,
    "odcast": 4997,
    "public": 4998,
    "panish": 4999,
    "psychism": 5000,
    "resent": 5001,
    "rief": 5002,
    "spe": 5003,
    "tra": 5004,
    "uctions": 5005,
    "uracy": 5006,
    "volution": 5007,
    "www": 5008,
    "xy": 5009,
    "yes": 5010,
    "{'": 5011,
    " :": 5012,
    " ill": 5013,
    " ri": 5014,
    " After": 5015,
    " Check": 5016,
    " Christ": 5017,
    " Det": 5018,
    " Define": 5019,
    " Echo": 5020,
    " Elect": 5021,
    " Exper": 5022,
    " Have": 5023,
    " Inflation": 5024,
    " La": 5025,
    " Ment": 5026,
    " Mom": 5027,
    " Name": 5028,
    " Now": 5029,
    " Namaste": 5030,
    " Pan": 5031,
    " Pakistan": 5032,
    " Rep": 5033,
    " Research": 5034,
    " Social": 5035,
    " Song": 5036,
    " Sound": 5037,
    " Speaking": 5038,
    " Think": 5039,
    " achievements": 5040,
    " afford": 5041,
    " analyzing": 5042,
    " answering": 5043,
    " attend": 5044,
    " autonom": 5045,
    " aware": 5046,
    " base": 5047,
    " background": 5048,
    " becomes": 5049,
    " belong": 5050,
    " breaks": 5051,
    " businesses": 5052,
    " cat": 5053,
    " cra": 5054,
    " chal": 5055,
    " client": 5056,
    " cognitive": 5057,
    " collective": 5058,
    " consequences": 5059,
    " config": 5060,
    " continuous": 5061,
    " contrast": 5062,
    " controversy": 5063,
    " cybersecurity": 5064,
    " dating": 5065,
    " dataset": 5066,
    " decl": 5067,
    " decentralized": 5068,
    " detect": 5069,
    " device": 5070,
    " ecos": 5071,
    " ecosystem": 5072,
    " employee": 5073,
    " entropy": 5074,
    " epis": 5075,
    " expression": 5076,
    " experiment": 5077,
    " freed": 5078,
    " fu": 5079,
    " flights": 5080,
    " games": 5081,
    " genuine": 5082,
    " kaise": 5083,
    " lage": 5084,
    " leaders": 5085,
    " lessons": 5086,
    " loyal": 5087,
    " ma": 5088,
    " missing": 5089,
    " morning": 5090,
    " narrative": 5091,
    " opinion": 5092,
    " opportunity": 5093,
    " overview": 5094,
    " padta": 5095,
    " parts": 5096,
    " played": 5097,
    " prepar": 5098,
    " probability": 5099,
    " raha": 5100,
    " rare": 5101,
    " robot": 5102,
    " robotics": 5103,
    " samajh": 5104,
    " scores": 5105,
    " secret": 5106,
    " sequence": 5107,
    " tens": 5108,
    " tiny": 5109,
    " technical": 5110,
    " thoda": 5111,
    " theory": 5112,
    " threads": 5113,
    " trending": 5114,
    " wid": 5115,
    "++": 5116,
    "27": 5117,
    "30": 5118,
    ">{'": 5119,
    "API": 5120,
    "Ad": 5121,
    "Al": 5122,
    "Cell": 5123,
    "Code": 5124,
    "Cultural": 5125,
    "Fi": 5126,
    "He": 5127,
    "Int": 5128,
    "Impro": 5129,
    "Let": 5130,
    "Lekin": 5131,
    "Mod": 5132,
    "Red": 5133,
    "RIMA": 5134,
    "_arguments": 5135,
    "_mem": 5136,
    "_sched": 5137,
    "_state": 5138,
    "_time": 5139,
    "aur": 5140,
    "acks": 5141,
    "agraph": 5142,
    "akli": 5143,
    "amilton": 5144,
    "ancisco": 5145,
    "arbon": 5146,
    "aves": 5147,
    "bly": 5148,
    "cement": 5149,
    "cout": 5150,
    "company": 5151,
    "const": 5152,
    "currency": 5153,
    "eless": 5154,
    "eter": 5155,
    "forcement": 5156,
    "ham": 5157,
    "icip": 5158,
    "icro": 5159,
    "illed": 5160,
    "import": 5161,
    "inglish": 5162,
    "isi": 5163,
    "life": 5164,
    "mortar": 5165,
    "ocking": 5166,
    "olesal": 5167,
    "oph": 5168,
    "oration": 5169,
    "osit": 5170,
    "ountain": 5171,
    "phone": 5172,
    "place": 5173,
    "ports": 5174,
    "rice": 5175,
    "ref": 5176,
    "rete": 5177,
    "ricanes": 5178,
    "table": 5179,
    "tr": 5180,
    "tool_arguments": 5181,
    "uries": 5182,
    "where": 5183,
    "xford": 5184,
    "}'": 5185,
    "}}</": 5186,
    "ि?": 5187,
    " gh": 5188,
    " 100": 5189,
    " Add": 5190,
    " Ap": 5191,
    " ADHD": 5192,
    " Alexa": 5193,
    " America": 5194,
    " Arist": 5195,
    " Aristotle": 5196,
    " BibTeX": 5197,
    " Business": 5198,
    " Could": 5199,
    " Chines": 5200,
    " Chinese": 5201,
    " Climate": 5202,
    " Di": 5203,
    " Dec": 5204,
    " Design": 5205,
    " Ed": 5206,
    " Exactly": 5207,
    " FM": 5208,
    " Facebook": 5209,
    " Food": 5210,
    " Francisco": 5211,
    " Gener": 5212,
    " Gree": 5213,
    " Hamilton": 5214,
    " IF": 5215,
    " Lag": 5216,
    " Language": 5217,
    " Linked": 5218,
    " LinkedIn": 5219,
    " Moj": 5220,
    " Modern": 5221,
    " Mojave": 5222,
    " Night": 5223,
    " Neighb": 5224,
    " News": 5225,
    " Opt": 5226,
    " Our": 5227,
    " Oxford": 5228,
    " Output": 5229,
    " Rec": 5230,
    " Reddit": 5231,
    " Regularly": 5232,
    " Respon": 5233,
    " SQL": 5234,
    " S_": 5235,
    " Sarah": 5236,
    " Set": 5237,
    " Stay": 5238,
    " Thrun": 5239,
    " URLs": 5240,
    " Yin": 5241,
    " ads": 5242,
    " added": 5243,
    " advice": 5244,
    " ago": 5245,
    " amplification": 5246,
    " argue": 5247,
    " bon": 5248,
    " batteries": 5249,
    " became": 5250,
    " bott": 5251,
    " breaths": 5252,
    " cred": 5253,
    " credi": 5254,
    " cause": 5255,
    " calls": 5256,
    " close": 5257,
    " coin": 5258,
    " college": 5259,
    " combination": 5260,
    " conference": 5261,
    " considering": 5262,
    " consistency": 5263,
    " corpor": 5264,
    " criteria": 5265,
    " curious": 5266,
    " dam": 5267,
    " domin": 5268,
    " designing": 5269,
    " destination": 5270,
    " dim": 5271,
    " dinner": 5272,
    " distin": 5273,
    " eyes": 5274,
    " editing": 5275,
    " effectiveness": 5276,
    " electronic": 5277,
    " enables": 5278,
    " enthusiast": 5279,
    " errors": 5280,
    " estim": 5281,
    " experts": 5282,
    " explicit": 5283,
    " extraction": 5284,
    " fost": 5285,
    " foster": 5286,
    " fix": 5287,
    " fluoridation": 5288,
    " gift": 5289,
    " gradi": 5290,
    " harmony": 5291,
    " honors": 5292,
    " humans": 5293,
    " inclusive": 5294,
    " indicate": 5295,
    " influencers": 5296,
    " inspire": 5297,
    " instance": 5298,
    " internet": 5299,
    " invention": 5300,
    " involve": 5301,
    " kitchen": 5302,
    " lack": 5303,
    " lost": 5304,
    " lower": 5305,
    " layers": 5306,
    " libraries": 5307,
    " limitations": 5308,
    " listening": 5309,
    " map": 5310,
    " mel": 5311,
    " mi": 5312,
    " manip": 5313,
    " massive": 5314,
    " material": 5315,
    " maybe": 5316,
    " mechanisms": 5317,
    " naturally": 5318,
    " negoti": 5319,
    " notes": 5320,
    " occ": 5321,
    " observations": 5322,
    " orbitals": 5323,
    " pap": 5324,
    " pet": 5325,
    " pict": 5326,
    " pie": 5327,
    " parad": 5328,
    " parameters": 5329,
    " passing": 5330,
    " political": 5331,
    " profiles": 5332,
    " profitable": 5333,
    " protocol": 5334,
    " queries": 5335,
    " reco": 5336,
    " reward": 5337,
    " relat": 5338,
    " rental": 5339,
    " rentals": 5340,
    " restaur": 5341,
    " restrictions": 5342,
    " send": 5343,
    " secure": 5344,
    " speech": 5345,
    " stuck": 5346,
    " standards": 5347,
    " strawber": 5348,
    " supported": 5349,
    " synthes": 5350,
    " tax": 5351,
    " tou": 5352,
    " transfer": 5353,
    " vehicle": 5354,
    " wealth": 5355,
    " webpage": 5356,
    " websites": 5357,
    " wisest": 5358,
    " worries": 5359,
    " yoga": 5360,
    " सञ": 5361,
    " सन": 5362,
    "/∂": 5363,
    "66": 5364,
    "98": 5365,
    "Chall": 5366,
    "EV": 5367,
    "Example": 5368,
    "Keep": 5369,
    "ON": 5370,
    "Personal": 5371,
    "Ph": 5372,
    "String": 5373,
    "_count": 5374,
    "_transl": 5375,
    "aid": 5376,
    "ams": 5377,
    "ampions": 5378,
    "arbonfootprint": 5379,
    "asual": 5380,
    "asure": 5381,
    "astly": 5382,
    "beat": 5383,
    "elines": 5384,
    "find": 5385,
    "gi": 5386,
    "house": 5387,
    "iar": 5388,
    "icine": 5389,
    "icles": 5390,
    "ificial": 5391,
    "imetic": 5392,
    "inding": 5393,
    "irl": 5394,
    "iscipl": 5395,
    "ished": 5396,
    "ister": 5397,
    "ita": 5398,
    "lights": 5399,
    "lon": 5400,
    "ned": 5401,
    "ograp": 5402,
    "olut": 5403,
    "olutely": 5404,
    "opy": 5405,
    "orem": 5406,
    "osh": 5407,
    "ouble": 5408,
    "oved": 5409,
    "paganda": 5410,
    "plac": 5411,
    "qtt": 5412,
    "rr": 5413,
    "random": 5414,
    "ses": 5415,
    "sh": 5416,
    "sol": 5417,
    "stor": 5418,
    "uru": 5419,
    "ured": 5420,
    "usion": 5421,
    "ustral": 5422,
    "wide": 5423,
    "world": 5424,
    "षमत": 5425,
    "षय": 5426,
    " //": 5427,
    " row": 5428,
    " ut": 5429,
    " $\\": 5430,
    " Abs": 5431,
    " Amazon": 5432,
    " Apple": 5433,
    " Calling": 5434,
    " Chrome": 5435,
    " Ev": 5436,
    " Emily": 5437,
    " Fashion": 5438,
    " Fire": 5439,
    " Functional": 5440,
    " Ge": 5441,
    " Gu": 5442,
    " GraphQL": 5443,
    " Hinglish": 5444,
    " Inter": 5445,
    " Java": 5446,
    " John": 5447,
    " LC": 5448,
    " Management": 5449,
    " Organ": 5450,
    " PWA": 5451,
    " Pinterest": 5452,
    " Pri": 5453,
    " Plus": 5454,
    " Process": 5455,
    " Su": 5456,
    " Share": 5457,
    " Tre": 5458,
    " Work": 5459,
    " acqu": 5460,
    " academic": 5461,
    " accuracy": 5462,
    " accessible": 5463,
    " acknowledge": 5464,
    " agric": 5465,
    " animal": 5466,
    " animals": 5467,
    " array": 5468,
    " asking": 5469,
    " budget": 5470,
    " baat": 5471,
    " balancing": 5472,
    " bey": 5473,
    " beyond": 5474,
    " bibli": 5475,
    " boundaries": 5476,
    " branded": 5477,
    " buyer": 5478,
    " cards": 5479,
    " candidate": 5480,
    " capac": 5481,
    " carry": 5482,
    " chance": 5483,
    " channels": 5484,
    " chimpanzee": 5485,
    " clin": 5486,
    " classroom": 5487,
    " compl": 5488,
    " components": 5489,
    " concurrent": 5490,
    " conduct": 5491,
    " construct": 5492,
    " contam": 5493,
    " continues": 5494,
    " credibility": 5495,
    " dense": 5496,
    " datasets": 5497,
    " deals": 5498,
    " descriptions": 5499,
    " divis": 5500,
    " directly": 5501,
    " discussing": 5502,
    " draw": 5503,
    " dynamic": 5504,
    " eating": 5505,
    " evid": 5506,
    " educational": 5507,
    " exhi": 5508,
    " fall": 5509,
    " fan": 5510,
    " fashion": 5511,
    " fight": 5512,
    " facilities": 5513,
    " favorite": 5514,
    " forums": 5515,
    " gained": 5516,
    " ground": 5517,
    " happens": 5518,
    " hes": 5519,
    " heavy": 5520,
    " homes": 5521,
    " identifying": 5522,
    " inflation": 5523,
    " incorporating": 5524,
    " influenced": 5525,
    " informative": 5526,
    " interaction": 5527,
    " introduce": 5528,
    " lines": 5529,
    " lights": 5530,
    " mit": 5531,
    " mood": 5532,
    " magic": 5533,
    " minimize": 5534,
    " monitor": 5535,
    " native": 5536,
    " nor": 5537,
    " navig": 5538,
    " offering": 5539,
    " ongoing": 5540,
    " optimization": 5541,
    " organized": 5542,
    " pal": 5543,
    " podcast": 5544,
    " potentially": 5545,
    " psychology": 5546,
    " queue": 5547,
    " rakh": 5548,
    " recur": 5549,
    " recognize": 5550,
    " reminds": 5551,
    " reposit": 5552,
    " resid": 5553,
    " returned": 5554,
    " roles": 5555,
    " shel": 5556,
    " soul": 5557,
    " squ": 5558,
    " sche": 5559,
    " second": 5560,
    " segmentation": 5561,
    " sensitive": 5562,
    " separate": 5563,
    " shopping": 5564,
    " specify": 5565,
    " stock": 5566,
    " struggles": 5567,
    " surface": 5568,
    " sustainability": 5569,
    " tile": 5570,
    " tit": 5571,
    " tutor": 5572,
    " threat": 5573,
    " trade": 5574,
    " transparency": 5575,
    " ven": 5576,
    " vi": 5577,
    " vital": 5578,
    " variables": 5579,
    " veget": 5580,
    " visibility": 5581,
    " wedding": 5582,
    " widely": 5583,
    "'?": 5584,
    "----": 5585,
    "100": 5586,
    "12345": 5587,
    "47": 5588,
    "876": 5589,
    "AA": 5590,
    "AD": 5591,
    "AT": 5592,
    "Now": 5593,
    "Practice": 5594,
    "Respon": 5595,
    "SS": 5596,
    "Some": 5597,
    "Start": 5598,
    "TP": 5599,
    "Title": 5600,
    "While": 5601,
    "_fl": 5602,
    "_w": 5603,
    "_for_n": 5604,
    "_gener": 5605,
    "`:": 5606,
    "aise": 5607,
    "aceted": 5608,
    "arly": 5609,
    "bb": 5610,
    "cles": 5611,
    "cribe": 5612,
    "chain": 5613,
    "connected": 5614,
    "der": 5615,
    "ddit": 5616,
    "etball": 5617,
    "finite": 5618,
    "icker": 5619,
    "irf": 5620,
    "itial": 5621,
    "itoring": 5622,
    "iverse": 5623,
    "iversity": 5624,
    "lat": 5625,
    "lete": 5626,
    "market": 5627,
    "modern": 5628,
    "nament": 5629,
    "numbers": 5630,
    "oman": 5631,
    "oper": 5632,
    "osis": 5633,
    "pace": 5634,
    "pi": 5635,
    "picious": 5636,
    "pir": 5637,
    "rong": 5638,
    "radi": 5639,
    "rangian": 5640,
    "sc": 5641,
    "sub": 5642,
    "search_for_": 5643,
    "stances": 5644,
    "tenance": 5645,
    "tering": 5646,
    "une": 5647,
    "yle": 5648,
    "अत": 5649,
    "\n\n  ": 5650,
    "\n            ": 5651,
    " #": 5652,
    " ice": 5653,
    " 13": 5654,
    " 14": 5655,
    " 20th": 5656,
    " Absolutely": 5657,
    " Bet": 5658,
    " Billboard": 5659,
    " Bo": 5660,
    " Brit": 5661,
    " British": 5662,
    " Co": 5663,
    " Class": 5664,
    " Earths": 5665,
    " Examples": 5666,
    " Fetch": 5667,
    " Gats": 5668,
    " Get": 5669,
    " Gatsby": 5670,
    " Hamiltonian": 5671,
    " IDs": 5672,
    " Its": 5673,
    " Low": 5674,
    " Lagrangian": 5675,
    " Main": 5676,
    " Mat": 5677,
    " Mong": 5678,
    " MacBook": 5679,
    " Mentee": 5680,
    " Practice": 5681,
    " Paris": 5682,
    " Patent": 5683,
    " Read": 5684,
    " Rel": 5685,
    " Sa": 5686,
    " Spanish": 5687,
    " Store": 5688,
    " USD": 5689,
    " World": 5690,
    " accountability": 5691,
    " advertising": 5692,
    " adventure": 5693,
    " afra": 5694,
    " afraid": 5695,
    " agre": 5696,
    " alternative": 5697,
    " amidst": 5698,
    " amounts": 5699,
    " apne": 5700,
    " appoint": 5701,
    " artistic": 5702,
    " atm": 5703,
    " atmosp": 5704,
    " atmosphere": 5705,
    " bed": 5706,
    " beach": 5707,
    " boards": 5708,
    " branding": 5709,
    " breaking": 5710,
    " breakdown": 5711,
    " buildings": 5712,
    " cross": 5713,
    " cut": 5714,
    " chat": 5715,
    " chemical": 5716,
    " closed": 5717,
    " cool": 5718,
    " cover": 5719,
    " coll": 5720,
    " columns": 5721,
    " comments": 5722,
    " computing": 5723,
    " conclusion": 5724,
    " consists": 5725,
    " coun": 5726,
    " couple": 5727,
    " currencies": 5728,
    " depends": 5729,
    " designers": 5730,
    " developmental": 5731,
    " distractions": 5732,
    " elim": 5733,
    " electrical": 5734,
    " episodes": 5735,
    " evidence": 5736,
    " expected": 5737,
    " far": 5738,
    " flexibility": 5739,
    " fluoride": 5740,
    " formatting": 5741,
    " funny": 5742,
    " guidelines": 5743,
    " hoop": 5744,
    " hooping": 5745,
    " hurricanes": 5746,
    " imagine": 5747,
    " inj": 5748,
    " indicates": 5749,
    " industrial": 5750,
    " inspiration": 5751,
    " instant": 5752,
    " integration": 5753,
    " interpret": 5754,
    " investing": 5755,
    " itself": 5756,
    " jab": 5757,
    " jaise": 5758,
    " kare": 5759,
    " kisi": 5760,
    " losing": 5761,
    " luck": 5762,
    " ly": 5763,
    " leads": 5764,
    " letter": 5765,
    " mer": 5766,
    " mobile": 5767,
    " maintenance": 5768,
    " maintaining": 5769,
    " manner": 5770,
    " markets": 5771,
    " meaningful": 5772,
    " metrics": 5773,
    " mixt": 5774,
    " modernity": 5775,
    " multif": 5776,
    " multifaceted": 5777,
    " note": 5778,
    " orb": 5779,
    " orbital": 5780,
    " ownership": 5781,
    " passions": 5782,
    " peaceful": 5783,
    " phenomen": 5784,
    " philosoph": 5785,
    " phrases": 5786,
    " policing": 5787,
    " prefer": 5788,
    " profile": 5789,
    " purposes": 5790,
    " rap": 5791,
    " radio": 5792,
    " radius": 5793,
    " reh": 5794,
    " received": 5795,
    " recommended": 5796,
    " refer": 5797,
    " region": 5798,
    " regarding": 5799,
    " relev": 5800,
    " relevance": 5801,
    " retreat": 5802,
    " rights": 5803,
    " room": 5804,
    " sirf": 5805,
    " sw": 5806,
    " switch": 5807,
    " saath": 5808,
    " sahi": 5809,
    " satisfaction": 5810,
    " scientific": 5811,
    " search_string": 5812,
    " semaphore": 5813,
    " sentences": 5814,
    " shaping": 5815,
    " smart": 5816,
    " solid": 5817,
    " standing": 5818,
    " starts": 5819,
    " surv": 5820,
    " telep": 5821,
    " testing": 5822,
    " took": 5823,
    " touch": 5824,
    " transmit": 5825,
    " trees": 5826,
    " unf": 5827,
    " uncertainty": 5828,
    " vary": 5829,
    " vaccination": 5830,
    " weekend": 5831,
    " wondering": 5832,
    " wonderful": 5833,
    " worksh": 5834,
    " workshops": 5835,
    " zar": 5836,
    " zero": 5837,
    " zaroor": 5838,
    " दद": 5839,
    "\";": 5840,
    "\"],": 5841,
    "\"}],": 5842,
    "'}}</": 5843,
    "Ar": 5844,
    "Can": 5845,
    "Challeng": 5846,
    "Collabor": 5847,
    "Community": 5848,
    "Data": 5849,
    "ER": 5850,
    "Err": 5851,
    "Enh": 5852,
    "FC": 5853,
    "Food": 5854,
    "LF": 5855,
    "LL": 5856,
    "Lack": 5857,
    "Log": 5858,
    "Mon": 5859,
    "NN": 5860,
    "No": 5861,
    "Part": 5862,
    "Provide": 5863,
    "Qu": 5864,
    "Reg": 5865,
    "Se": 5866,
    "TT": 5867,
    "Trans": 5868,
    "YLF": 5869,
    "[\"": 5870,
    "_to": 5871,
    "_date": 5872,
    "_det": 5873,
    "_from": 5874,
    "_index": 5875,
    "_mp": 5876,
    "_price": 5877,
    "_weather": 5878,
    "ahaan": 5879,
    "alog": 5880,
    "allel": 5881,
    "althy": 5882,
    "ania": 5883,
    "appy": 5884,
    "asting": 5885,
    "bies": 5886,
    "billboard": 5887,
    "books": 5888,
    "cel": 5889,
    "chnology": 5890,
    "ded": 5891,
    "domain": 5892,
    "ega": 5893,
    "egrable": 5894,
    "erial": 5895,
    "ereot": 5896,
    "erman": 5897,
    "ervice": 5898,
    "fts": 5899,
    "fficient": 5900,
    "gments": 5901,
    "gon": 5902,
    "gress": 5903,
    "gry": 5904,
    "get_all": 5905,
    "ggio": 5906,
    "gling": 5907,
    "happ": 5908,
    "happiness": 5909,
    "hest": 5910,
    "iance": 5911,
    "iation": 5912,
    "ierarch": 5913,
    "ifies": 5914,
    "imal": 5915,
    "include": 5916,
    "inj": 5917,
    "injas": 5918,
    "ipping": 5919,
    "ither": 5920,
    "ivals": 5921,
    "labeled": 5922,
    "lean": 5923,
    "map": 5924,
    "most": 5925,
    "minist": 5926,
    "nowledge": 5927,
    "och": 5928,
    "off": 5929,
    "ocal": 5930,
    "odies": 5931,
    "ographers": 5932,
    "ographic": 5933,
    "ols": 5934,
    "orph": 5935,
    "othing": 5936,
    "otional": 5937,
    "otiv": 5938,
    "ourn": 5939,
    "pact": 5940,
    "pen": 5941,
    "pite": 5942,
    "pot": 5943,
    "plete": 5944,
    "pper": 5945,
    "proper": 5946,
    "ql": 5947,
    "rating": 5948,
    "reggio": 5949,
    "rest": 5950,
    "reflection": 5951,
    "related": 5952,
    "rition": 5953,
    "roud": 5954,
    "search_": 5955,
    "solving": 5956,
    "start": 5957,
    "stood": 5958,
    "tag": 5959,
    "uff": 5960,
    "uity": 5961,
    "uced": 5962,
    "uisine": 5963,
    "ushing": 5964,
    "utrition": 5965,
    "vector": 5966,
    "vey": 5967,
    "vironmental": 5968,
    "your": 5969,
    "ymbol": 5970,
    "ysical": 5971,
    "}\"": 5972,
    "},": 5973,
    "लन": 5974,
    "ां": 5975,
    " /": 5976,
    " >": 5977,
    " _": 5978,
    " “": 5979,
    " \"\",": 5980,
    " \"\"},": 5981,
    " 2022": 5982,
    " 2023": 5983,
    " 30": 5984,
    " ARIMA": 5985,
    " Care": 5986,
    " Cent": 5987,
    " DC": 5988,
    " Dr": 5989,
    " Development": 5990,
    " Effective": 5991,
    " Eudaimonia": 5992,
    " Edison": 5993,
    " Engage": 5994,
    " Flow": 5995,
    " Freel": 5996,
    " Information": 5997,
    " Intern": 5998,
    " Keras": 5999,
    " Luna": 6000,
    " League": 6001,
    " Mi": 6002,
    " NBA": 6003,
    " Offer": 6004,
    " PH": 6005,
    " PHP": 6006,
    " Perform": 6007,
    " REST": 6008,
    " Server": 6009,
    " Tik": 6010,
    " TikT": 6011,
    " TikTok": 6012,
    " West": 6013,
    " achieving": 6014,
    " acknowled": 6015,
    " actual": 6016,
    " affecting": 6017,
    " album": 6018,
    " amb": 6019,
    " analytics": 6020,
    " approaches": 6021,
    " artificial": 6022,
    " asked": 6023,
    " assumptions": 6024,
    " brief": 6025,
    " burn": 6026,
    " bada": 6027,
    " balanced": 6028,
    " batt": 6029,
    " came": 6030,
    " cit": 6031,
    " cook": 6032,
    " cuisine": 6033,
    " calendar": 6034,
    " campaigns": 6035,
    " candidates": 6036,
    " capital": 6037,
    " capacity": 6038,
    " category": 6039,
    " causing": 6040,
    " charge": 6041,
    " charity": 6042,
    " closely": 6043,
    " compare": 6044,
    " compassion": 6045,
    " concrete": 6046,
    " confident": 6047,
    " configuration": 6048,
    " conflicts": 6049,
    " constra": 6050,
    " contains": 6051,
    " doub": 6052,
    " dekh": 6053,
    " decide": 6054,
    " decre": 6055,
    " dedicated": 6056,
    " dedication": 6057,
    " delight": 6058,
    " deliver": 6059,
    " distinct": 6060,
    " distributed": 6061,
    " dynamics": 6062,
    " either": 6063,
    " embry": 6064,
    " employ": 6065,
    " endpoint": 6066,
    " equal": 6067,
    " equival": 6068,
    " exchang": 6069,
    " exclusive": 6070,
    " expensive": 6071,
    " exploration": 6072,
    " explanation": 6073,
    " facts": 6074,
    " famil": 6075,
    " fest": 6076,
    " flexible": 6077,
    " focuses": 6078,
    " foreign": 6079,
    " fully": 6080,
    " fulfilling": 6081,
    " functional": 6082,
    " greate": 6083,
    " get_all": 6084,
    " goods": 6085,
    " gradu": 6086,
    " greatest": 6087,
    " house": 6088,
    " happening": 6089,
    " heard": 6090,
    " helped": 6091,
    " hesit": 6092,
    " inse": 6093,
    " incredibly": 6094,
    " instruction": 6095,
    " interview": 6096,
    " introduction": 6097,
    " invent": 6098,
    " investments": 6099,
    " king": 6100,
    " knew": 6101,
    " karen": 6102,
    " larger": 6103,
    " leaving": 6104,
    " logic": 6105,
    " longer": 6106,
    " mark": 6107,
    " mut": 6108,
    " managing": 6109,
    " matlab": 6110,
    " meetups": 6111,
    " mitigate": 6112,
    " modified": 6113,
    " module": 6114,
    " nice": 6115,
    " neighborhood": 6116,
    " neuron": 6117,
    " nutritional": 6118,
    " opp": 6119,
    " obst": 6120,
    " objectives": 6121,
    " obstac": 6122,
    " obstacles": 6123,
    " occup": 6124,
    " overl": 6125,
    " pack": 6126,
    " pin": 6127,
    " pm": 6128,
    " proud": 6129,
    " pul": 6130,
    " push": 6131,
    " paid": 6132,
    " participation": 6133,
    " passionate": 6134,
    " peh": 6135,
    " policies": 6136,
    " print": 6137,
    " prediction": 6138,
    " presence": 6139,
    " prioritizing": 6140,
    " produce": 6141,
    " productive": 6142,
    " profound": 6143,
    " protein": 6144,
    " protocols": 6145,
    " quote": 6146,
    " rat": 6147,
    " rahi": 6148,
    " rapid": 6149,
    " reve": 6150,
    " reading": 6151,
    " reflects": 6152,
    " remain": 6153,
    " remove": 6154,
    " respective": 6155,
    " restaurants": 6156,
    " retrieving": 6157,
    " rock": 6158,
    " scalability": 6159,
    " scenari": 6160,
    " search_for_": 6161,
    " showcase": 6162,
    " skys": 6163,
    " skyscraper": 6164,
    " soon": 6165,
    " sorted": 6166,
    " spin": 6167,
    " sta": 6168,
    " stars": 6169,
    " stored": 6170,
    " strawberry": 6171,
    " streaming": 6172,
    " studies": 6173,
    " syntax": 6174,
    " therap": 6175,
    " threading": 6176,
    " tom": 6177,
    " tomorrow": 6178,
    " train": 6179,
    " unlabeled": 6180,
    " vel": 6181,
    " vegetables": 6182,
    " vehicles": 6183,
    " viewers": 6184,
    " warri": 6185,
    " zaroori": 6186,
    "17": 6187,
    "24": 6188,
    "AB": 6189,
    "Add": 6190,
    "Aut": 6191,
    "Bo": 6192,
    "Celebrate": 6193,
    "Dev": 6194,
    "Improved": 6195,
    "Influenc": 6196,
    "KU": 6197,
    "Keras": 6198,
    "KUP": 6199,
    "LOO": 6200,
    "List": 6201,
    "LOOKUP": 6202,
    "Med": 6203,
    "Off": 6204,
    "Pre": 6205,
    "Product": 6206,
    "Response": 6207,
    "Script": 6208,
    "Set": 6209,
    "SP32": 6210,
    "UR": 6211,
    "_jokes": 6212,
    "_api_": 6213,
    "_code": 6214,
    "_for_d": 6215,
    "_for_h": 6216,
    "_for_st": 6217,
    "aal": 6218,
    "achel": 6219,
    "ailable": 6220,
    "alays": 6221,
    "alse": 6222,
    "ama": 6223,
    "ami": 6224,
    "arily": 6225,
    "asm": 6226,
    "attle": 6227,
    "atee": 6228,
    "awareness": 6229,
    "ayers": 6230,
    "berg": 6231,
    "billboard_api": 6232,
    "bsite": 6233,
    "ca": 6234,
    "can": 6235,
    "cape": 6236,
    "col": 6237,
    "ception": 6238,
    "chron": 6239,
    "consum": 6240,
    "country": 6241,
    "discipl": 6242,
    "dist": 6243,
    "duced": 6244,
    "ew": 6245,
    "ensity": 6246,
    "entum": 6247,
    "erate": 6248,
    "ernal": 6249,
    "es_for_": 6250,
    "eting": 6251,
    "free": 6252,
    "ferent": 6253,
    "iat": 6254,
    "ividual": 6255,
    "icipate": 6256,
    "illion": 6257,
    "ised": 6258,
    "lling": 6259,
    "mall": 6260,
    "message": 6261,
    "more": 6262,
    "oke": 6263,
    "oose": 6264,
    "ockey": 6265,
    "ocs": 6266,
    "olation": 6267,
    "opic": 6268,
    "order": 6269,
    "ota": 6270,
    "outure": 6271,
    "panies": 6272,
    "ploy": 6273,
    "ploye": 6274,
    "ployee": 6275,
    "ptoms": 6276,
    "repare": 6277,
    "result": 6278,
    "rip": 6279,
    "rix": 6280,
    "rol": 6281,
    "size": 6282,
    "spect": 6283,
    "sec": 6284,
    "step": 6285,
    "tem": 6286,
    "ua": 6287,
    "umber": 6288,
    "unte": 6289,
    "ustomer": 6290,
    "vered": 6291,
    "waste": 6292,
    "weet": 6293,
    "zy": 6294,
    "रद": 6295,
    " }}": 6296,
    " 72": 6297,
    " <-": 6298,
    " Actually": 6299,
    " Alita": 6300,
    " Angeles": 6301,
    " Culture": 6302,
    " Deezer": 6303,
    " ESP32": 6304,
    " Ent": 6305,
    " Education": 6306,
    " Fren": 6307,
    " French": 6308,
    " Govern": 6309,
    " Hai": 6310,
    " Impl": 6311,
    " Invest": 6312,
    " JavaScript": 6313,
    " Kar": 6314,
    " Lastly": 6315,
    " Like": 6316,
    " Los": 6317,
    " MQ": 6318,
    " Mus": 6319,
    " Museum": 6320,
    " MQTT": 6321,
    " Momentum": 6322,
    " NLP": 6323,
    " Neighbors": 6324,
    " Nightm": 6325,
    " Nightmares": 6326,
    " Over": 6327,
    " Online": 6328,
    " Ph": 6329,
    " Port": 6330,
    " Prem": 6331,
    " Platform": 6332,
    " Propaganda": 6333,
    " Recogn": 6334,
    " Self": 6335,
    " Sk": 6336,
    " Sol": 6337,
    " Start": 6338,
    " Str": 6339,
    " Students": 6340,
    " Twit": 6341,
    " Then": 6342,
    " Twitter": 6343,
    " Understand": 6344,
    " Up": 6345,
    " Yang": 6346,
    " aaj": 6347,
    " achieved": 6348,
    " acknowledging": 6349,
    " alph": 6350,
    " analytical": 6351,
    " asar": 6352,
    " assets": 6353,
    " attempted": 6354,
    " balls": 6355,
    " booking": 6356,
    " bright": 6357,
    " battle": 6358,
    " becoming": 6359,
    " beliefs": 6360,
    " breed": 6361,
    " broader": 6362,
    " cars": 6363,
    " cash": 6364,
    " catch": 6365,
    " celebr": 6366,
    " cir": 6367,
    " capture": 6368,
    " centuries": 6369,
    " cheez": 6370,
    " circ": 6371,
    " civilizations": 6372,
    " coming": 6373,
    " combine": 6374,
    " commitment": 6375,
    " communic": 6376,
    " competing": 6377,
    " computer": 6378,
    " conver": 6379,
    " convey": 6380,
    " consult": 6381,
    " constraints": 6382,
    " dress": 6383,
    " damage": 6384,
    " dead": 6385,
    " dekho": 6386,
    " directions": 6387,
    " disp": 6388,
    " discount": 6389,
    " displayed": 6390,
    " doston": 6391,
    " drives": 6392,
    " encourages": 6393,
    " encouraging": 6394,
    " entertaining": 6395,
    " eternal": 6396,
    " excit": 6397,
    " excitement": 6398,
    " experienc": 6399,
    " expressions": 6400,
    " fat": 6401,
    " fill": 6402,
    " fra": 6403,
    " famous": 6404,
    " filter": 6405,
    " final": 6406,
    " footage": 6407,
    " forces": 6408,
    " fruits": 6409,
    " gard": 6410,
    " girl": 6411,
    " gro": 6412,
    " generator": 6413,
    " grav": 6414,
    " har": 6415,
    " hor": 6416,
    " happened": 6417,
    " highlights": 6418,
    " hona": 6419,
    " incent": 6420,
    " incom": 6421,
    " indicating": 6422,
    " instructions": 6423,
    " interconnected": 6424,
    " interface": 6425,
    " international": 6426,
    " karenge": 6427,
    " karta": 6428,
    " league": 6429,
    " leadership": 6430,
    " liqu": 6431,
    " liquid": 6432,
    " listing": 6433,
    " loop": 6434,
    " mix": 6435,
    " managed": 6436,
    " milest": 6437,
    " milestones": 6438,
    " mixture": 6439,
    " mole": 6440,
    " moral": 6441,
    " motor": 6442,
    " motivational": 6443,
    " movies": 6444,
    " neuro": 6445,
    " norms": 6446,
    " notable": 6447,
    " nothing": 6448,
    " nutrients": 6449,
    " odds": 6450,
    " outputs": 6451,
    " owner": 6452,
    " owners": 6453,
    " pace": 6454,
    " personality": 6455,
    " philosopher": 6456,
    " philosophical": 6457,
    " piece": 6458,
    " poor": 6459,
    " popover": 6460,
    " possess": 6461,
    " prepare": 6462,
    " preparation": 6463,
    " prop": 6464,
    " prompt": 6465,
    " promotional": 6466,
    " properly": 6467,
    " react": 6468,
    " renew": 6469,
    " replication": 6470,
    " realize": 6471,
    " recognizing": 6472,
    " removed": 6473,
    " repair": 6474,
    " report": 6475,
    " repositories": 6476,
    " reputation": 6477,
    " reson": 6478,
    " sister": 6479,
    " syn": 6480,
    " sabse": 6481,
    " screen": 6482,
    " serve": 6483,
    " shown": 6484,
    " shares": 6485,
    " significantly": 6486,
    " simplify": 6487,
    " soccer": 6488,
    " spot": 6489,
    " spinning": 6490,
    " station": 6491,
    " stereot": 6492,
    " startups": 6493,
    " storms": 6494,
    " supply": 6495,
    " tailored": 6496,
    " tend": 6497,
    " timing": 6498,
    " titles": 6499,
    " tournament": 6500,
    " tracks": 6501,
    " traditions": 6502,
    " transformation": 6503,
    " und": 6504,
    " understood": 6505,
    " urban": 6506,
    " vict": 6507,
    " velv": 6508,
    " velvety": 6509,
    " verification": 6510,
    " vision": 6511,
    " wale": 6512,
    " win": 6513,
    " wing": 6514,
    " won": 6515,
    " worldwide": 6516,
    " }},": 6517,
    "!)**:": 6518,
    "%**:": 6519,
    "++)": 6520,
    ".\",": 6521,
    ".*": 6522,
    "/:": 6523,
    "21": 6524,
    "60": 6525,
    "80": 6526,
    "93": 6527,
    "::": 6528,
    "?'": 6529,
    "Cur": 6530,
    "Dreams": 6531,
    "Elect": 6532,
    "Examples": 6533,
    "FW": 6534,
    "Happy": 6535,
    "Hello": 6536,
    "Hy": 6537,
    "However": 6538,
    "Indian": 6539,
    "Long": 6540,
    "Message": 6541,
    "Monitor": 6542,
    "NNs": 6543,
    "OT": 6544,
    "PL": 6545,
    "Per": 6546,
    "Research": 6547,
    "S_": 6548,
    "Support": 6549,
    "TC": 6550,
    "Take": 6551,
    "Time": 6552,
    "UN": 6553,
    "USD": 6554,
    "Vari": 6555,
    "Word": 6556,
    "_company": 6557,
    "_email": 6558,
    "_response": 6559,
    "_ver": 6560,
    "_down": 6561,
    "_for_ch": 6562,
    "_for_cur": 6563,
    "_for_places": 6564,
    "_for_currenc": 6565,
    "_for_currencya": 6566,
    "_for_currencyapi": 6567,
    "_for_currencyapi_n": 6568,
    "_for_currencyapi_net": 6569,
    "_generator": 6570,
    "_lookup": 6571,
    "_scraper": 6572,
    "a_": 6573,
    "ais": 6574,
    "aze": 6575,
    "abl": 6576,
    "acu": 6577,
    "agues": 6578,
    "alance": 6579,
    "alue": 6580,
    "allest": 6581,
    "ancy": 6582,
    "anings": 6583,
    "ante": 6584,
    "appoint": 6585,
    "arb": 6586,
    "asy": 6587,
    "atar": 6588,
    "base": 6589,
    "bird": 6590,
    "bots": 6591,
    "box": 6592,
    "comfort": 6593,
    "ctors": 6594,
    "db": 6595,
    "des": 6596,
    "dle": 6597,
    "deezer": 6598,
    "defin": 6599,
    "entence": 6600,
    "erts": 6601,
    "ertical": 6602,
    "erticalResponse": 6603,
    "etry": 6604,
    "fers": 6605,
    "function": 6606,
    "flow": 6607,
    "force": 6608,
    "gent": 6609,
    "google": 6610,
    "hai": 6611,
    "healthy": 6612,
    "hetic": 6613,
    "hent": 6614,
    "iors": 6615,
    "ilen": 6616,
    "ilomet": 6617,
    "inuous": 6618,
    "inded": 6619,
    "indrome": 6620,
    "integrable": 6621,
    "isa": 6622,
    "ka": 6623,
    "known": 6624,
    "lene": 6625,
    "limit": 6626,
    "log": 6627,
    "long": 6628,
    "mes": 6629,
    "minded": 6630,
    "mm": 6631,
    "math": 6632,
    "ni": 6633,
    "nda": 6634,
    "nerships": 6635,
    "occer": 6636,
    "ockingbird": 6637,
    "oday": 6638,
    "ographics": 6639,
    "oll": 6640,
    "ona": 6641,
    "onic": 6642,
    "ont": 6643,
    "organ": 6644,
    "orie": 6645,
    "orders": 6646,
    "ournal": 6647,
    "pin": 6648,
    "pected": 6649,
    "plate_response": 6650,
    "que": 6651,
    "rim": 6652,
    "rand": 6653,
    "radius": 6654,
    "reddit": 6655,
    "redict": 6656,
    "rig": 6657,
    "rooms": 6658,
    "rupt": 6659,
    "sem": 6660,
    "sion": 6661,
    "sue": 6662,
    "stract": 6663,
    "telling": 6664,
    "times": 6665,
    "template_response": 6666,
    "tery": 6667,
    "urd": 6668,
    "urt": 6669,
    "users": 6670,
    "ustralia": 6671,
    "utive": 6672,
    "vantage": 6673,
    "vision": 6674,
    "wap": 6675,
    "woke": 6676,
    "words": 6677,
    "xtures": 6678,
    "ybersecurity": 6679,
    "zip": 6680,
    " !": 6681,
    " User": 6682,
    " X": 6683,
    " ir": 6684,
    " !=": 6685,
    " ---": 6686,
    " 200": 6687,
    " 2020": 6688,
    " 500": 6689,
    " Ab": 6690,
    " Ads": 6691,
    " Assistant": 6692,
    " Bel": 6693,
    " Bh": 6694,
    " CE": 6695,
    " Cam": 6696,
    " Car": 6697,
    " Chimpanze": 6698,
    " Creating": 6699,
    " Creative": 6700,
    " Did": 6701,
    " Dis": 6702,
    " During": 6703,
    " Defin": 6704,
    " El": 6705,
    " EVs": 6706,
    " Educational": 6707,
    " Electric": 6708,
    " Excel": 6709,
    " Foster": 6710,
    " Give": 6711,
    " Greet": 6712,
    " Grou": 6713,
    " Greek": 6714,
    " Greetings": 6715,
    " High": 6716,
    " Impro": 6717,
    " Inf": 6718,
    " Infinite": 6719,
    " Influenc": 6720,
    " Instant": 6721,
    " Kill": 6722,
    " Libr": 6723,
    " Listen": 6724,
    " Malays": 6725,
    " Manag": 6726,
    " Mobile": 6727,
    " Mockingbird": 6728,
    " Media": 6729,
    " Mexico": 6730,
    " Miami": 6731,
    " Mongol": 6732,
    " NYLF": 6733,
    " Ok": 6734,
    " Optim": 6735,
    " PE": 6736,
    " Pre": 6737,
    " Participate": 6738,
    " Preserve": 6739,
    " Prior": 6740,
    " Product": 6741,
    " Project": 6742,
    " Processing": 6743,
    " Sal": 6744,
    " Sharing": 6745,
    " Tips": 6746,
    " Traditional": 6747,
    " Utilize": 6748,
    " VLOOKUP": 6749,
    " Wis": 6750,
    " Western": 6751,
    " [\"": 6752,
    " accel": 6753,
    " adult": 6754,
    " adding": 6755,
    " adds": 6756,
    " alle": 6757,
    " ambig": 6758,
    " anger": 6759,
    " angry": 6760,
    " annual": 6761,
    " appears": 6762,
    " appointments": 6763,
    " arrang": 6764,
    " authority": 6765,
    " band": 6766,
    " basics": 6767,
    " bath": 6768,
    " bats": 6769,
    " begin": 6770,
    " believers": 6771,
    " blockchain": 6772,
    " boost": 6773,
    " bonds": 6774,
    " casual": 6775,
    " cow": 6776,
    " crisis": 6777,
    " cry": 6778,
    " camels": 6779,
    " center": 6780,
    " chocolates": 6781,
    " circum": 6782,
    " circumstances": 6783,
    " classical": 6784,
    " closer": 6785,
    " cope": 6786,
    " collections": 6787,
    " commands": 6788,
    " compar": 6789,
    " comparison": 6790,
    " computations": 6791,
    " constantly": 6792,
    " construction": 6793,
    " courses": 6794,
    " cowork": 6795,
    " criticism": 6796,
    " culturally": 6797,
    " cyber": 6798,
    " dreams": 6799,
    " debates": 6800,
    " diagnosis": 6801,
    " dimensional": 6802,
    " dimensionality": 6803,
    " disad": 6804,
    " distract": 6805,
    " divine": 6806,
    " documents": 6807,
    " dominant": 6808,
    " egg": 6809,
    " eye": 6810,
    " enjoya": 6811,
    " enjoyable": 6812,
    " entity": 6813,
    " entry": 6814,
    " estate": 6815,
    " evaluation": 6816,
    " evening": 6817,
    " everyday": 6818,
    " exists": 6819,
    " excited": 6820,
    " exciting": 6821,
    " extrem": 6822,
    " fa": 6823,
    " faith": 6824,
    " featuring": 6825,
    " fixed": 6826,
    " flowers": 6827,
    " fostering": 6828,
    " freedom": 6829,
    " fruit": 6830,
    " graph": 6831,
    " gender": 6832,
    " generated": 6833,
    " grate": 6834,
    " grains": 6835,
    " grateful": 6836,
    " greenhouse": 6837,
    " hierarch": 6838,
    " hiring": 6839,
    " haz": 6840,
    " habitats": 6841,
    " height": 6842,
    " hoon": 6843,
    " hobbies": 6844,
    " identified": 6845,
    " implies": 6846,
    " inclusion": 6847,
    " incorporate": 6848,
    " independence": 6849,
    " inspiring": 6850,
    " internal": 6851,
    " jaate": 6852,
    " kabhi": 6853,
    " lau": 6854,
    " len": 6855,
    " lies": 6856,
    " lim": 6857,
    " lyrics": 6858,
    " mapping": 6859,
    " marg": 6860,
    " merm": 6861,
    " manipulation": 6862,
    " matrix": 6863,
    " medicine": 6864,
    " mindfulness": 6865,
    " mistake": 6866,
    " myString": 6867,
    " nodes": 6868,
    " nour": 6869,
    " novel": 6870,
    " obser": 6871,
    " obtaining": 6872,
    " organic": 6873,
    " passed": 6874,
    " pehle": 6875,
    " percent": 6876,
    " percentage": 6877,
    " performances": 6878,
    " performing": 6879,
    " permut": 6880,
    " persist": 6881,
    " phenomenon": 6882,
    " photos": 6883,
    " popularity": 6884,
    " prints": 6885,
    " preserve": 6886,
    " principle": 6887,
    " privacy": 6888,
    " promotes": 6889,
    " proteins": 6890,
    " pursu": 6891,
    " pursue": 6892,
    " rating": 6893,
    " round": 6894,
    " rapidly": 6895,
    " revolution": 6896,
    " rewards": 6897,
    " receives": 6898,
    " recently": 6899,
    " recipe": 6900,
    " recursive": 6901,
    " reduced": 6902,
    " regimes": 6903,
    " regist": 6904,
    " reliability": 6905,
    " renewable": 6906,
    " resistor": 6907,
    " resulting": 6908,
    " routes": 6909,
    " side": 6910,
    " spl": 6911,
    " seed": 6912,
    " selection": 6913,
    " seeing": 6914,
    " seek": 6915,
    " selling": 6916,
    " serious": 6917,
    " session": 6918,
    " smallest": 6919,
    " staff": 6920,
    " stereotypes": 6921,
    " structured": 6922,
    " struggle": 6923,
    " suppl": 6924,
    " surpass": 6925,
    " surrounded": 6926,
    " suspicious": 6927,
    " symptoms": 6928,
    " title": 6929,
    " taken": 6930,
    " telepathy": 6931,
    " thank": 6932,
    " theater": 6933,
    " timeout": 6934,
    " tol": 6935,
    " tourist": 6936,
    " transaction": 6937,
    " transfers": 6938,
    " trek": 6939,
    " tutorials": 6940,
    " upl": 6941,
    " units": 6942,
    " unli": 6943,
    " unw": 6944,
    " unlik": 6945,
    " unlikely": 6946,
    " upset": 6947,
    " vast": 6948,
    " validation": 6949,
    " visiting": 6950,
    " volunte": 6951,
    " wild": 6952,
    " wise": 6953,
    " woman": 6954,
    " wait": 6955,
    " wasn": 6956,
    " whate": 6957,
    " white": 6958,
    " wholesal": 6959,
    " whatever": 6960,
    " yiel": 6961,
    " yaar": 6962,
    " zones": 6963,
    " बत": 6964,
    "\"]": 6965,
    "\"}},": 6966,
    ")$": 6967,
    "194": 6968,
    "200": 6969,
    "26": 6970,
    "413": 6971,
    "500": 6972,
    "84": 6973,
    "86": 6974,
    "9876": 6975,
    "AL": 6976,
    "Additional": 6977,
    "Am": 6978,
    "At": 6979,
    "Board": 6980,
    "CA": 6981,
    "CO": 6982,
    "Context": 6983,
    "Devices": 6984,
    "For": 6985,
    "Id": 6986,
    "Index": 6987,
    "India": 6988,
    "MI": 6989,
    "NA": 6990,
    "Name": 6991,
    "New": 6992,
    "Please": 6993,
    "Sh": 6994,
    "Ut": 6995,
    "You": 6996,
    "Zil": 6997,
    "Zilber": 6998,
    "];": 6999,
    "_image": 7000,
    "_by_keyword": 7001,
    "_for_youtube": 7002,
    "_nutrition": 7003,
    "_song": 7004,
    "_the": 7005,
    "`.": 7006,
    "abet": 7007,
    "acing": 7008,
    "acteria": 7009,
    "acts": 7010,
    "ada": 7011,
    "agine": 7012,
    "ai_": 7013,
    "ails_for_": 7014,
    "ali": 7015,
    "alyst": 7016,
    "amily": 7017,
    "ameter": 7018,
    "ani": 7019,
    "anted": 7020,
    "apan": 7021,
    "ara": 7022,
    "array": 7023,
    "arning": 7024,
    "assword": 7025,
    "atory": 7026,
    "atures": 7027,
    "bert": 7028,
    "cial": 7029,
    "ceive": 7030,
    "ceptions": 7031,
    "coins": 7032,
    "commod": 7033,
    "cont": 7034,
    "couraging": 7035,
    "craft": 7036,
    "depe": 7037,
    "depending": 7038,
    "ear": 7039,
    "ek": 7040,
    "eek": 7041,
    "eline": 7042,
    "emo": 7043,
    "emory": 7044,
    "enefits": 7045,
    "enses": 7046,
    "ensitive": 7047,
    "entials": 7048,
    "erance": 7049,
    "etfl": 7050,
    "etflix": 7051,
    "fitting": 7052,
    "fol": 7053,
    "folio": 7054,
    "grep": 7055,
    "giene": 7056,
    "hist": 7057,
    "hero": 7058,
    "iFi": 7059,
    "iled": 7060,
    "ifts": 7061,
    "ilenberg": 7062,
    "irm": 7063,
    "ires": 7064,
    "iser": 7065,
    "izz": 7066,
    "json": 7067,
    "lang": 7068,
    "len": 7069,
    "length": 7070,
    "ln": 7071,
    "location": 7072,
    "lt": 7073,
    "max": 7074,
    "nic": 7075,
    "number": 7076,
    "oes": 7077,
    "ool": 7078,
    "overs": 7079,
    "obility": 7080,
    "ocracy": 7081,
    "oka": 7082,
    "olesaling": 7083,
    "online": 7084,
    "open": 7085,
    "pages": 7086,
    "post": 7087,
    "rative": 7088,
    "rue": 7089,
    "real_time": 7090,
    "reaming": 7091,
    "rivia": 7092,
    "rows": 7093,
    "rowth": 7094,
    "sensitive": 7095,
    "sentence": 7096,
    "stack": 7097,
    "tical": 7098,
    "themed": 7099,
    "uary": 7100,
    "ued": 7101,
    "udd": 7102,
    "uilt": 7103,
    "uling": 7104,
    "uman": 7105,
    "umbers": 7106,
    "vation": 7107,
    "vent": 7108,
    "vention": 7109,
    "wise": 7110,
    "with": 7111,
    "yun": 7112,
    "zil": 7113,
    "रण": 7114,
    " ic": 7115,
    " '{}'": 7116,
    " 21": 7117,
    " 24": 7118,
    " Advertising": 7119,
    " African": 7120,
    " Ask": 7121,
    " Brazil": 7122,
    " CO2": 7123,
    " Chain": 7124,
    " Christian": 7125,
    " Chromebooks": 7126,
    " Conduct": 7127,
    " Consult": 7128,
    " Describe": 7129,
    " Determ": 7130,
    " Eilenberg": 7131,
    " Enter": 7132,
    " Engagement": 7133,
    " Find": 7134,
    " First": 7135,
    " Fore": 7136,
    " Financial": 7137,
    " Freelancing": 7138,
    " Gr": 7139,
    " Haan": 7140,
    " Hmm": 7141,
    " Ho": 7142,
    " Implicit": 7143,
    " Increased": 7144,
    " Inform": 7145,
    " Individual": 7146,
    " Indust": 7147,
    " Ital": 7148,
    " Italian": 7149,
    " Li": 7150,
    " Load": 7151,
    " LaTeX": 7152,
    " Mark": 7153,
    " Mimetic": 7154,
    " Mult": 7155,
    " Malaysian": 7156,
    " Mein": 7157,
    " Mexican": 7158,
    " Mongolia": 7159,
    " NFTs": 7160,
    " Never": 7161,
    " Pol": 7162,
    " Postmodern": 7163,
    " Ret": 7164,
    " River": 7165,
    " Really": 7166,
    " Songbook": 7167,
    " Soundcloud": 7168,
    " TR": 7169,
    " Veh": 7170,
    " Vice": 7171,
    " Vir": 7172,
    " War": 7173,
    " Wisdom": 7174,
    " Ze": 7175,
    " `<": 7176,
    " abstract": 7177,
    " absurd": 7178,
    " accommod": 7179,
    " accounts": 7180,
    " actively": 7181,
    " actor": 7182,
    " adm": 7183,
    " advantage": 7184,
    " adoption": 7185,
    " advoc": 7186,
    " ages": 7187,
    " agree": 7188,
    " agreement": 7189,
    " agriculture": 7190,
    " alag": 7191,
    " ali": 7192,
    " appreciation": 7193,
    " architectural": 7194,
    " asset": 7195,
    " atom": 7196,
    " audi": 7197,
    " authent": 7198,
    " automate": 7199,
    " autonomy": 7200,
    " bar": 7201,
    " bits": 7202,
    " borrow": 7203,
    " bur": 7204,
    " bask": 7205,
    " battles": 7206,
    " behaviors": 7207,
    " belonging": 7208,
    " blue": 7209,
    " cater": 7210,
    " cert": 7211,
    " codes": 7212,
    " cort": 7213,
    " calorie": 7214,
    " categor": 7215,
    " changed": 7216,
    " channel": 7217,
    " characterized": 7218,
    " chimpanzees": 7219,
    " choosing": 7220,
    " cloud": 7221,
    " clarify": 7222,
    " clearly": 7223,
    " clinical": 7224,
    " coaching": 7225,
    " coins": 7226,
    " cooper": 7227,
    " collaborate": 7228,
    " commonly": 7229,
    " communicating": 7230,
    " compat": 7231,
    " compos": 7232,
    " competitor": 7233,
    " concent": 7234,
    " consumers": 7235,
    " consumption": 7236,
    " containing": 7237,
    " contracts": 7238,
    " corporate": 7239,
    " cultivate": 7240,
    " cultivating": 7241,
    " currently": 7242,
    " daun": 7243,
    " doll": 7244,
    " dram": 7245,
    " dro": 7246,
    " daunting": 7247,
    " dealing": 7248,
    " debated": 7249,
    " defined": 7250,
    " depart": 7251,
    " dialog": 7252,
    " divide": 7253,
    " diagnose": 7254,
    " dialogue": 7255,
    " dispar": 7256,
    " displac": 7257,
    " disadvantages": 7258,
    " discrim": 7259,
    " discrimination": 7260,
    " discussion": 7261,
    " district": 7262,
    " divor": 7263,
    " divisions": 7264,
    " echo": 7265,
    " eco": 7266,
    " embra": 7267,
    " embryo": 7268,
    " empower": 7269,
    " enc": 7270,
    " endl": 7271,
    " engineering": 7272,
    " enter": 7273,
    " entertainment": 7274,
    " establ": 7275,
    " ethical": 7276,
    " eventually": 7277,
    " evolution": 7278,
    " execute": 7279,
    " experim": 7280,
    " experienced": 7281,
    " false": 7282,
    " fog": 7283,
    " freel": 7284,
    " factor": 7285,
    " fasting": 7286,
    " feet": 7287,
    " festivals": 7288,
    " fixtures": 7289,
    " figures": 7290,
    " figured": 7291,
    " filters": 7292,
    " finish": 7293,
    " flood": 7294,
    " floor": 7295,
    " formal": 7296,
    " gifts": 7297,
    " gives": 7298,
    " gaming": 7299,
    " generally": 7300,
    " getaw": 7301,
    " getaway": 7302,
    " grid": 7303,
    " gradients": 7304,
    " grows": 7305,
    " hint": 7306,
    " herit": 7307,
    " hero": 7308,
    " heritage": 7309,
    " hobby": 7310,
    " holding": 7311,
    " homesick": 7312,
    " hotel": 7313,
    " hoti": 7314,
    " hybrid": 7315,
    " hygiene": 7316,
    " illust": 7317,
    " implicit": 7318,
    " incentives": 7319,
    " independent": 7320,
    " indicators": 7321,
    " inequality": 7322,
    " influencing": 7323,
    " insecurity": 7324,
    " intim": 7325,
    " intu": 7326,
    " intentional": 7327,
    " introduced": 7328,
    " isolation": 7329,
    " journeyLength": 7330,
    " judgment": 7331,
    " juggling": 7332,
    " kyun": 7333,
    " keywords": 7334,
    " laun": 7335,
    " lic": 7336,
    " lagta": 7337,
    " laugh": 7338,
    " layer": 7339,
    " lean": 7340,
    " lend": 7341,
    " learns": 7342,
    " liber": 7343,
    " linear": 7344,
    " lists": 7345,
    " loyalty": 7346,
    " mar": 7347,
    " men": 7348,
    " micro": 7349,
    " mode": 7350,
    " mountain": 7351,
    " myst": 7352,
    " marginal": 7353,
    " meetings": 7354,
    " meets": 7355,
    " mentions": 7356,
    " mentors": 7357,
    " misin": 7358,
    " modulation": 7359,
    " monitoring": 7360,
    " monthly": 7361,
    " motivate": 7362,
    " myth": 7363,
    " neurons": 7364,
    " nuanced": 7365,
    " nuts": 7366,
    " oven": 7367,
    " objective": 7368,
    " obtained": 7369,
    " officials": 7370,
    " onto": 7371,
    " orders": 7372,
    " outgoing": 7373,
    " pata": 7374,
    " panpsychism": 7375,
    " paper": 7376,
    " paragraph": 7377,
    " parallel": 7378,
    " parameter": 7379,
    " parks": 7380,
    " paradig": 7381,
    " patience": 7382,
    " persu": 7383,
    " philosophers": 7384,
    " playful": 7385,
    " poetry": 7386,
    " polym": 7387,
    " popovers": 7388,
    " pricing": 7389,
    " practicing": 7390,
    " profit": 7391,
    " provider": 7392,
    " purchasing": 7393,
    " quite": 7394,
    " qualities": 7395,
    " quantum": 7396,
    " ranking": 7397,
    " rid": 7398,
    " ride": 7399,
    " rough": 7400,
    " rural": 7401,
    " ratings": 7402,
    " red": 7403,
    " rein": 7404,
    " rely": 7405,
    " realized": 7406,
    " recovery": 7407,
    " records": 7408,
    " reduces": 7409,
    " referred": 7410,
    " regardless": 7411,
    " relatable": 7412,
    " remote": 7413,
    " reminder": 7414,
    " reputable": 7415,
    " resume": 7416,
    " respectful": 7417,
    " retention": 7418,
    " rewarding": 7419,
    " rhyming": 7420,
    " root": 7421,
    " routines": 7422,
    " sample": 7423,
    " sav": 7424,
    " sizes": 7425,
    " sql": 7426,
    " sakti": 7427,
    " scope": 7428,
    " schema": 7429,
    " sea": 7430,
    " sessions": 7431,
    " shift": 7432,
    " shl": 7433,
    " shloka": 7434,
    " showing": 7435,
    " skin": 7436,
    " sky": 7437,
    " sport": 7438,
    " spect": 7439,
    " stability": 7440,
    " stable": 7441,
    " star": 7442,
    " stick": 7443,
    " stood": 7444,
    " stret": 7445,
    " standard": 7446,
    " stores": 7447,
    " suc": 7448,
    " sufficient": 7449,
    " succeed": 7450,
    " suppress": 7451,
    " tar": 7452,
    " tip": 7453,
    " tur": 7454,
    " tw": 7455,
    " teamwork": 7456,
    " templ": 7457,
    " templates": 7458,
    " tension": 7459,
    " thr": 7460,
    " threats": 7461,
    " timeline": 7462,
    " told": 7463,
    " tolerance": 7464,
    " trading": 7465,
    " tried": 7466,
    " trivia": 7467,
    " tumhe": 7468,
    " typical": 7469,
    " ultimately": 7470,
    " unex": 7471,
    " unhappiness": 7472,
    " unhealthy": 7473,
    " unexpected": 7474,
    " usage": 7475,
    " v1": 7476,
    " var": 7477,
    " void": 7478,
    " variations": 7479,
    " verb": 7480,
    " victory": 7481,
    " views": 7482,
    " vulnerable": 7483,
    " went": 7484,
    " wrong": 7485,
    " waiting": 7486,
    " wallet": 7487,
    " wanting": 7488,
    " wholesaler": 7489,
    " zone": 7490,
    "')": 7491,
    "110": 7492,
    "11085": 7493,
    "1108584": 7494,
    "128": 7495,
    "123456": 7496,
    "1500": 7497,
    "31": 7498,
    "56": 7499,
    "97": 7500,
    "AR": 7501,
    "Acc": 7502,
    "Ass": 7503,
    "AAPL": 7504,
    "Bas": 7505,
    "Benefits": 7506,
    "Body": 7507,
    "Business": 7508,
    "Check": 7509,
    "Challenges": 7510,
    "Class": 7511,
    "Comp": 7512,
    "Content": 7513,
    "Des": 7514,
    "Di": 7515,
    "Dif": 7516,
    "Dekho": 7517,
    "Eu": 7518,
    "Enhanced": 7519,
    "Error": 7520,
    "Euph": 7521,
    "Euphor": 7522,
    "Euphoria": 7523,
    "Flex": 7524,
    "Gra": 7525,
    "Haan": 7526,
    "Host": 7527,
    "IF": 7528,
    "IP": 7529,
    "Influencer": 7530,
    "Lead": 7531,
    "Life": 7532,
    "Make": 7533,
    "Modern": 7534,
    "NLP": 7535,
    "PA": 7536,
    "Pages": 7537,
    "Position": 7538,
    "Post": 7539,
    "Reduced": 7540,
    "Serial": 7541,
    "Sub": 7542,
    "Toh": 7543,
    "Tra": 7544,
    "][": 7545,
    "_1": 7546,
    "__": 7547,
    "_all": 7548,
    "_an": 7549,
    "_download": 7550,
    "_for_ind": 7551,
    "_for_p": 7552,
    "_for_quotes": 7553,
    "_for_we": 7554,
    "_for_world": 7555,
    "_for_carbonfootprint": 7556,
    "_for_test": 7557,
    "_path": 7558,
    "_sum": 7559,
    "_v3": 7560,
    "aced": 7561,
    "agy": 7562,
    "amazon": 7563,
    "anga": 7564,
    "aping": 7565,
    "appointment": 7566,
    "ashing": 7567,
    "atural": 7568,
    "atching": 7569,
    "ayega": 7570,
    "bed": 7571,
    "bi": 7572,
    "bl": 7573,
    "bound": 7574,
    "bookTitle": 7575,
    "cific": 7576,
    "canner": 7577,
    "chon": 7578,
    "cking": 7579,
    "companies": 7580,
    "commerce": 7581,
    "cons": 7582,
    "convert": 7583,
    "current_state": 7584,
    "discipline": 7585,
    "economic": 7586,
    "ees": 7587,
    "elp": 7588,
    "elug": 7589,
    "ells": 7590,
    "elugu": 7591,
    "erved": 7592,
    "ese": 7593,
    "esl": 7594,
    "essages": 7595,
    "etition": 7596,
    "everage": 7597,
    "fast": 7598,
    "father": 7599,
    "fection": 7600,
    "file_path": 7601,
    "fluence": 7602,
    "henticity": 7603,
    "iced": 7604,
    "idents": 7605,
    "ief": 7606,
    "imensional": 7607,
    "inance": 7608,
    "inate": 7609,
    "inations": 7610,
    "isition": 7611,
    "itania": 7612,
    "itivity": 7613,
    "itud": 7614,
    "itorial": 7615,
    "itudes": 7616,
    "ker": 7617,
    "lcm": 7618,
    "lenecks": 7619,
    "mqtt": 7620,
    "model": 7621,
    "oom": 7622,
    "ockt": 7623,
    "ogen": 7624,
    "olo": 7625,
    "olocation": 7626,
    "ophagy": 7627,
    "orphism": 7628,
    "osting": 7629,
    "otion": 7630,
    "ounder": 7631,
    "part": 7632,
    "predict": 7633,
    "plore": 7634,
    "porary": 7635,
    "programming": 7636,
    "quotes_by_keyword": 7637,
    "rity": 7638,
    "raw": 7639,
    "redictions": 7640,
    "restling": 7641,
    "sm": 7642,
    "s_for_billboard_api": 7643,
    "stars": 7644,
    "test": 7645,
    "tings": 7646,
    "top": 7647,
    "urable": 7648,
    "uccess": 7649,
    "ump": 7650,
    "unch": 7651,
    "uning": 7652,
    "used": 7653,
    "uses": 7654,
    "v3": 7655,
    "vable": 7656,
    "vage": 7657,
    "verse": 7658,
    "while": 7659,
    "wood": 7660,
    "working": 7661,
    "yd": 7662,
    "yscanner": 7663,
    "}$": 7664,
    " %": 7665,
    " }": 7666,
    " ∂": 7667,
    " \"{": 7668,
    " 2000": 7669,
    " 25": 7670,
    " 40": 7671,
    " Acc": 7672,
    " Aud": 7673,
    " Av": 7674,
    " Aw": 7675,
    " Airs": 7676,
    " Analyze": 7677,
    " Att": 7678,
    " BMI": 7679,
    " Building": 7680,
    " Before": 7681,
    " CSS": 7682,
    " Code": 7683,
    " Crisis": 7684,
    " Cali": 7685,
    " Califor": 7686,
    " Californ": 7687,
    " California": 7688,
    " Chimpanzee": 7689,
    " Cloud": 7690,
    " Collabor": 7691,
    " Common": 7692,
    " Contam": 7693,
    " Correggio": 7694,
    " Del": 7695,
    " Dog": 7696,
    " Domain": 7697,
    " Definitely": 7698,
    " EUR": 7699,
    " Each": 7700,
    " End": 7701,
    " Even": 7702,
    " Encouraging": 7703,
    " Fl": 7704,
    " Forms": 7705,
    " Forest": 7706,
    " Green": 7707,
    " Guide": 7708,
    " Har": 7709,
    " Hol": 7710,
    " Hon": 7711,
    " Hula": 7712,
    " Implementing": 7713,
    " Include": 7714,
    " Instr": 7715,
    " Influencers": 7716,
    " Integ": 7717,
    " Join": 7718,
    " Layers": 7719,
    " Look": 7720,
    " Loss": 7721,
    " Library": 7722,
    " Machine": 7723,
    " Mars": 7724,
    " Mental": 7725,
    " Min": 7726,
    " More": 7727,
    " Model": 7728,
    " MySQL": 7729,
    " NU": 7730,
    " Non": 7731,
    " NULL": 7732,
    " Neil": 7733,
    " Neverland": 7734,
    " Open": 7735,
    " Peter": 7736,
    " Phot": 7737,
    " Pract": 7738,
    " Prayer": 7739,
    " Partner": 7740,
    " Patience": 7741,
    " Physical": 7742,
    " Plant": 7743,
    " Platforms": 7744,
    " Premier": 7745,
    " Priorit": 7746,
    " Programming": 7747,
    " Rob": 7748,
    " Recognize": 7749,
    " Sc": 7750,
    " Sent": 7751,
    " Sales": 7752,
    " Show": 7753,
    " Simulation": 7754,
    " Student": 7755,
    " Systems": 7756,
    " Taking": 7757,
    " Tens": 7758,
    " Techn": 7759,
    " Therefore": 7760,
    " Whe": 7761,
    " Word": 7762,
    " Whats": 7763,
    " aaye": 7764,
    " ast": 7765,
    " ath": 7766,
    " aapko": 7767,
    " absol": 7768,
    " absolute": 7769,
    " acids": 7770,
    " administ": 7771,
    " adaptable": 7772,
    " advanc": 7773,
    " agenda": 7774,
    " aims": 7775,
    " alter": 7776,
    " aligns": 7777,
    " alloc": 7778,
    " anime": 7779,
    " apart": 7780,
    " appra": 7781,
    " appear": 7782,
    " applied": 7783,
    " approx": 7784,
    " aren": 7785,
    " artist": 7786,
    " attitudes": 7787,
    " attendees": 7788,
    " autonomous": 7789,
    " bag": 7790,
    " born": 7791,
    " bachche": 7792,
    " basketball": 7793,
    " beech": 7794,
    " below": 7795,
    " benefit": 7796,
    " beta": 7797,
    " bitter": 7798,
    " bitterness": 7799,
    " black": 7800,
    " blogs": 7801,
    " bookPages": 7802,
    " brought": 7803,
    " brew": 7804,
    " burnout": 7805,
    " cop": 7806,
    " coping": 7807,
    " calming": 7808,
    " camel": 7809,
    " cancer": 7810,
    " checks": 7811,
    " classification": 7812,
    " coast": 7813,
    " coff": 7814,
    " coffee": 7815,
    " comment": 7816,
    " compared": 7817,
    " competitions": 7818,
    " conferences": 7819,
    " consumer": 7820,
    " counts": 7821,
    " credentials": 7822,
    " crying": 7823,
    " curve": 7824,
    " dad": 7825,
    " density": 7826,
    " der": 7827,
    " deadlines": 7828,
    " debate": 7829,
    " decid": 7830,
    " decline": 7831,
    " demands": 7832,
    " demographics": 7833,
    " demonstrate": 7834,
    " describing": 7835,
    " designs": 7836,
    " divid": 7837,
    " differ": 7838,
    " difficulties": 7839,
    " discipl": 7840,
    " dishes": 7841,
    " discovered": 7842,
    " disparities": 7843,
    " displacement": 7844,
    " distribution": 7845,
    " divorce": 7846,
    " doctor": 7847,
    " dollars": 7848,
    " dono": 7849,
    " emphasize": 7850,
    " emphasizes": 7851,
    " enforcement": 7852,
    " equitable": 7853,
    " equity": 7854,
    " escape": 7855,
    " established": 7856,
    " estimates": 7857,
    " etc": 7858,
    " evaluating": 7859,
    " exact": 7860,
    " expon": 7861,
    " exchanges": 7862,
    " execut": 7863,
    " exhibit": 7864,
    " expanding": 7865,
    " expenses": 7866,
    " experimentation": 7867,
    " extra": 7868,
    " extreme": 7869,
    " fay": 7870,
    " fairness": 7871,
    " farming": 7872,
    " faster": 7873,
    " fears": 7874,
    " fitness": 7875,
    " flavor": 7876,
    " flour": 7877,
    " follows": 7878,
    " forests": 7879,
    " freeing": 7880,
    " frequent": 7881,
    " friendly": 7882,
    " frustration": 7883,
    " gal": 7884,
    " god": 7885,
    " gold": 7886,
    " geoc": 7887,
    " goes": 7888,
    " hone": 7889,
    " hosp": 7890,
    " hun": 7891,
    " hair": 7892,
    " harder": 7893,
    " harmonious": 7894,
    " hazard": 7895,
    " hazardous": 7896,
    " hesitate": 7897,
    " homesickness": 7898,
    " honge": 7899,
    " hypot": 7900,
    " ideap": 7901,
    " identifier": 7902,
    " identities": 7903,
    " implemented": 7904,
    " increases": 7905,
    " incredible": 7906,
    " influential": 7907,
    " insight": 7908,
    " inspired": 7909,
    " intake": 7910,
    " intense": 7911,
    " interference": 7912,
    " jun": 7913,
    " kin": 7914,
    " karti": 7915,
    " kyunki": 7916,
    " lately": 7917,
    " leaf": 7918,
    " leverage": 7919,
    " leader": 7920,
    " legacy": 7921,
    " lifest": 7922,
    " limits": 7923,
    " limiting": 7924,
    " linked": 7925,
    " logon": 7926,
    " logos": 7927,
    " lookup": 7928,
    " master": 7929,
    " member": 7930,
    " mid": 7931,
    " milk": 7932,
    " marginalized": 7933,
    " matching": 7934,
    " measured": 7935,
    " meditation": 7936,
    " melodies": 7937,
    " memor": 7938,
    " musical": 7939,
    " nerv": 7940,
    " nurt": 7941,
    " naming": 7942,
    " namespace": 7943,
    " naturality": 7944,
    " notifications": 7945,
    " nuances": 7946,
    " nurturing": 7947,
    " overs": 7948,
    " occurs": 7949,
    " offl": 7950,
    " offline": 7951,
    " operation": 7952,
    " orient": 7953,
    " outd": 7954,
    " owned": 7955,
    " pen": 7956,
    " pic": 7957,
    " ple": 7958,
    " pow": 7959,
    " publ": 7960,
    " paani": 7961,
    " painting": 7962,
    " password": 7963,
    " patients": 7964,
    " peak": 7965,
    " peers": 7966,
    " permission": 7967,
    " persuas": 7968,
    " photography": 7969,
    " phrase": 7970,
    " planned": 7971,
    " pooch": 7972,
    " portfolio": 7973,
    " positions": 7974,
    " possib": 7975,
    " postal": 7976,
    " preci": 7977,
    " precision": 7978,
    " precip": 7979,
    " precipitation": 7980,
    " presented": 7981,
    " presenting": 7982,
    " prevention": 7983,
    " protection": 7984,
    " psychiat": 7985,
    " racial": 7986,
    " raised": 7987,
    " rahega": 7988,
    " reaches": 7989,
    " rechar": 7990,
    " reference": 7991,
    " rej": 7992,
    " rese": 7993,
    " recharge": 7994,
    " relative": 7995,
    " relig": 7996,
    " releases": 7997,
    " repro": 7998,
    " representing": 7999,
    " researc": 8000,
    " residential": 8001,
    " san": 8002,
    " sn": 8003,
    " spon": 8004,
    " scrap": 8005,
    " schools": 8006,
    " sections": 8007,
    " seller": 8008,
    " shad": 8009,
    " shining": 8010,
    " shoes": 8011,
    " shaped": 8012,
    " shouldn": 8013,
    " signs": 8014,
    " simulations": 8015,
    " simplest": 8016,
    " societ": 8017,
    " societal": 8018,
    " sold": 8019,
    " sorting": 8020,
    " spaces": 8021,
    " spark": 8022,
    " spent": 8023,
    " spend": 8024,
    " square": 8025,
    " stri": 8026,
    " statements": 8027,
    " steel": 8028,
    " storytelling": 8029,
    " streams": 8030,
    " stressed": 8031,
    " stressful": 8032,
    " successes": 8033,
    " successfully": 8034,
    " suggestion": 8035,
    " surpris": 8036,
    " surround": 8037,
    " surrounding": 8038,
    " synthesis": 8039,
    " tap": 8040,
    " thous": 8041,
    " thrive": 8042,
    " thanks": 8043,
    " theorem": 8044,
    " ther": 8045,
    " tourists": 8046,
    " traits": 8047,
    " transmission": 8048,
    " treasure": 8049,
    " tumh": 8050,
    " ultimate": 8051,
    " unse": 8052,
    " understandable": 8053,
    " via": 8054,
    " venue": 8055,
    " versions": 8056,
    " volume": 8057,
    " wall": 8058,
    " wat": 8059,
    " wel": 8060,
    " warming": 8061,
    " window": 8062,
    " yields": 8063,
    " yours": 8064,
    " पर": 8065,
    "!**": 8066,
    "\")": 8067,
    "\");": 8068,
    "())": 8069,
    "**,": 8070,
    "03": 8071,
    "054": 8072,
    "098": 8073,
    "0x": 8074,
    "28": 8075,
    "42": 8076,
    "44": 8077,
    "5555": 8078,
    "70": 8079,
    "89": 8080,
    "?:**": 8081,
    "Af": 8082,
    "And": 8083,
    "App": 8084,
    "Cor": 8085,
    "Comm": 8086,
    "Conclusion": 8087,
    "Current": 8088,
    "DEV": 8089,
    "DEVFC": 8090,
    "DEVFCL": 8091,
    "DEVFCLQ": 8092,
    "DEVFCLQFW": 8093,
    "DEVFCLQFW054": 8094,
    "Early": 8095,
    "Emotional": 8096,
    "Environmental": 8097,
    "Fac": 8098,
    "First": 8099,
    "Facilit": 8100,
    "Flexibility": 8101,
    "Gener": 8102,
    "Is": 8103,
    "Information": 8104,
    "Inst": 8105,
    "Journey": 8106,
    "Limit": 8107,
    "MB": 8108,
    "Mat": 8109,
    "Mult": 8110,
    "Nakli": 8111,
    "Neg": 8112,
    "Or": 8113,
    "Other": 8114,
    "Pack": 8115,
    "Prom": 8116,
    "SO": 8117,
    "Sa": 8118,
    "Score": 8119,
    "Seek": 8120,
    "Self": 8121,
    "Server": 8122,
    "Str": 8123,
    "USDT": 8124,
    "Variable": 8125,
    "When": 8126,
    "]:": 8127,
    "_cl": 8128,
    "_de": 8129,
    "_ge": 8130,
    "_api_n": 8131,
    "_api_ninjas": 8132,
    "_by_api_ninjas": 8133,
    "_company_data": 8134,
    "_db": 8135,
    "_do": 8136,
    "_data_for_": 8137,
    "_exchange": 8138,
    "_for_deezer": 8139,
    "_for_quotes_api": 8140,
    "_location": 8141,
    "_mobile": 8142,
    "_mp4": 8143,
    "_news_for_": 8144,
    "_of_jokes": 8145,
    "_product_search": 8146,
    "_sub": 8147,
    "_status": 8148,
    "_translator": 8149,
    "aad": 8150,
    "abetes": 8151,
    "ache": 8152,
    "ached": 8153,
    "acuation": 8154,
    "aker": 8155,
    "ames": 8156,
    "amless": 8157,
    "amount": 8158,
    "amping": 8159,
    "anch": 8160,
    "arby": 8161,
    "arma": 8162,
    "ashington": 8163,
    "ba": 8164,
    "bad": 8165,
    "bid": 8166,
    "body": 8167,
    "bor": 8168,
    "break": 8169,
    "breed": 8170,
    "built": 8171,
    "balance": 8172,
    "c5": 8173,
    "city": 8174,
    "culation": 8175,
    "calability": 8176,
    "cknowledge": 8177,
    "coLife": 8178,
    "compass": 8179,
    "conceptions": 8180,
    "crafts": 8181,
    "cycling": 8182,
    "del": 8183,
    "dimensional": 8184,
    "dding": 8185,
    "defined": 8186,
    "effective": 8187,
    "edia": 8188,
    "egment": 8189,
    "elity": 8190,
    "eness": 8191,
    "ending": 8192,
    "eration": 8193,
    "eta": 8194,
    "ether": 8195,
    "etrics": 8196,
    "flight": 8197,
    "game": 8198,
    "gener": 8199,
    "gy": 8200,
    "gebra": 8201,
    "gressive": 8202,
    "group": 8203,
    "iers": 8204,
    "ios": 8205,
    "idelity": 8206,
    "igolo": 8207,
    "iki": 8208,
    "ils": 8209,
    "ilkul": 8210,
    "inst": 8211,
    "inecraft": 8212,
    "ingly": 8213,
    "istical": 8214,
    "istry": 8215,
    "itative": 8216,
    "iter": 8217,
    "itt": 8218,
    "ite3": 8219,
    "izer": 8220,
    "izers": 8221,
    "jud": 8222,
    "kal": 8223,
    "kar": 8224,
    "kha": 8225,
    "live": 8226,
    "lo": 8227,
    "lock": 8228,
    "leg": 8229,
    "lets": 8230,
    "lev": 8231,
    "mark": 8232,
    "mer": 8233,
    "mo": 8234,
    "mathcal": 8235,
    "meanings": 8236,
    "modynam": 8237,
    "nov": 8238,
    "nearby": 8239,
    "oon": 8240,
    "oors": 8241,
    "oking": 8242,
    "opedia": 8243,
    "orth": 8244,
    "orporate": 8245,
    "ositive": 8246,
    "otics": 8247,
    "otimes": 8248,
    "ounc": 8249,
    "outh": 8250,
    "phi": 8251,
    "pop": 8252,
    "pre": 8253,
    "pread": 8254,
    "perial": 8255,
    "portion": 8256,
    "product": 8257,
    "prov": 8258,
    "ptic": 8259,
    "ranking": 8260,
    "rich": 8261,
    "reation": 8262,
    "reens": 8263,
    "reading": 8264,
    "real_time_product_search": 8265,
    "relation": 8266,
    "rieve": 8267,
    "rog": 8268,
    "sa": 8269,
    "score": 8270,
    "ship": 8271,
    "sort": 8272,
    "source": 8273,
    "soft": 8274,
    "spectus": 8275,
    "status": 8276,
    "ster": 8277,
    "swer": 8278,
    "taking": 8279,
    "target": 8280,
    "tics": 8281,
    "title": 8282,
    "terior": 8283,
    "ux": 8284,
    "ualization": 8285,
    "uby": 8286,
    "uese": 8287,
    "uggest": 8288,
    "uguese": 8289,
    "ulated": 8290,
    "ulatory": 8291,
    "unga": 8292,
    "using": 8293,
    "utional": 8294,
    "utures": 8295,
    "v1": 8296,
    "valu": 8297,
    "vere": 8298,
    "verbal": 8299,
    "vertical": 8300,
    "volutional": 8301,
    "water": 8302,
    "wid": 8303,
    "ws": 8304,
    "weight": 8305,
    "xic": 8306,
    "ying": 8307,
    "ydney": 8308,
    "year": 8309,
    "चय": 8310,
    " .": 8311,
    " ...": 8312,
    " q": 8313,
    " \"\"}],": 8314,
    " 120": 8315,
    " 18": 8316,
    " 12345": 8317,
    " 19th": 8318,
    " 70": 8319,
    " Access": 8320,
    " Acknowledge": 8321,
    " Ah": 8322,
    " Aim": 8323,
    " All": 8324,
    " Ant": 8325,
    " Australia": 8326,
    " Adjust": 8327,
    " Address": 8328,
    " Ampl": 8329,
    " Another": 8330,
    " Analysis": 8331,
    " Application": 8332,
    " Associ": 8333,
    " Authenticity": 8334,
    " Awareness": 8335,
    " Bas": 8336,
    " Bask": 8337,
    " Break": 8338,
    " Brick": 8339,
    " Budd": 8340,
    " Basketball": 8341,
    " Better": 8342,
    " Cult": 8343,
    " Camels": 8344,
    " Char": 8345,
    " Connect": 8346,
    " Conservation": 8347,
    " Control": 8348,
    " Contaminated": 8349,
    " Dark": 8350,
    " Doe": 8351,
    " Egy": 8352,
    " Egypt": 8353,
    " Email": 8354,
    " Events": 8355,
    " Experiment": 8356,
    " F1": 8357,
    " Free": 8358,
    " Hand": 8359,
    " His": 8360,
    " Hope": 8361,
    " Hy": 8362,
    " Hindu": 8363,
    " Hooping": 8364,
    " IN": 8365,
    " Imagine": 8366,
    " Initial": 8367,
    " Inde": 8368,
    " Index": 8369,
    " Individuals": 8370,
    " Internet": 8371,
    " Japan": 8372,
    " Lead": 8373,
    " Leverage": 8374,
    " Log": 8375,
    " MUN": 8376,
    " Mar": 8377,
    " Micro": 8378,
    " Minecraft": 8379,
    " Mis": 8380,
    " Medium": 8381,
    " Models": 8382,
    " NOT": 8383,
    " Nations": 8384,
    " Netflix": 8385,
    " Network": 8386,
    " OTP": 8387,
    " Ob": 8388,
    " Other": 8389,
    " PR": 8390,
    " Pa": 8391,
    " Pac": 8392,
    " Parma": 8393,
    " Power": 8394,
    " Prepare": 8395,
    " Panpsychism": 8396,
    " Patient": 8397,
    " Performance": 8398,
    " Planning": 8399,
    " Price": 8400,
    " Princi": 8401,
    " Practices": 8402,
    " Provid": 8403,
    " Ra": 8404,
    " Rachel": 8405,
    " Rem": 8406,
    " Rich": 8407,
    " Recycling": 8408,
    " Represent": 8409,
    " Rivera": 8410,
    " ST": 8411,
    " Sab": 8412,
    " Search": 8413,
    " Service": 8414,
    " Steam": 8415,
    " Success": 8416,
    " Select": 8417,
    " Sentiment": 8418,
    " Star": 8419,
    " Street": 8420,
    " Strateg": 8421,
    " Supervised": 8422,
    " Support": 8423,
    " Tim": 8424,
    " Tok": 8425,
    " Tree": 8426,
    " Teac": 8427,
    " Tensor": 8428,
    " Training": 8429,
    " Transl": 8430,
    " UN": 8431,
    " UU": 8432,
    " UUID": 8433,
    " Update": 8434,
    " Val": 8435,
    " Vanc": 8436,
    " Vancou": 8437,
    " Vancouver": 8438,
    " Virgin": 8439,
    " Wal": 8440,
    " Would": 8441,
    " Wholesal": 8442,
    " Wholesalers": 8443,
    " Yeh": 8444,
    " aa": 8445,
    " aate": 8446,
    " addition": 8447,
    " accepted": 8448,
    " accessing": 8449,
    " acts": 8450,
    " advancements": 8451,
    " affordable": 8452,
    " agencies": 8453,
    " agent": 8454,
    " aircrafts": 8455,
    " airports": 8456,
    " algebra": 8457,
    " almost": 8458,
    " algebraic": 8459,
    " alpha": 8460,
    " ambiguity": 8461,
    " analyst": 8462,
    " apna": 8463,
    " appearance": 8464,
    " applying": 8465,
    " aside": 8466,
    " atte": 8467,
    " attraction": 8468,
    " audiences": 8469,
    " avoiding": 8470,
    " bacteria": 8471,
    " bana": 8472,
    " bene": 8473,
    " bhai": 8474,
    " bilkul": 8475,
    " bol": 8476,
    " bow": 8477,
    " brick": 8478,
    " bul": 8479,
    " baad": 8480,
    " badh": 8481,
    " beneath": 8482,
    " betting": 8483,
    " biological": 8484,
    " bibliographic": 8485,
    " blocks": 8486,
    " box": 8487,
    " breakup": 8488,
    " crick": 8489,
    " cro": 8490,
    " calculation": 8491,
    " capability": 8492,
    " captiv": 8493,
    " captivating": 8494,
    " centers": 8495,
    " champions": 8496,
    " chances": 8497,
    " chun": 8498,
    " chunks": 8499,
    " citations": 8500,
    " clut": 8501,
    " clubs": 8502,
    " cognition": 8503,
    " colleagues": 8504,
    " comed": 8505,
    " comedy": 8506,
    " compliance": 8507,
    " complicated": 8508,
    " completed": 8509,
    " concurrency": 8510,
    " conven": 8511,
    " concerned": 8512,
    " consume": 8513,
    " constructive": 8514,
    " continuously": 8515,
    " contributions": 8516,
    " converted": 8517,
    " coordinate": 8518,
    " cortex": 8519,
    " couch": 8520,
    " counter": 8521,
    " couplets": 8522,
    " coworker": 8523,
    " creator": 8524,
    " critically": 8525,
    " crops": 8526,
    " daal": 8527,
    " dance": 8528,
    " du": 8529,
    " duration": 8530,
    " dependent": 8531,
    " deploy": 8532,
    " depth": 8533,
    " described": 8534,
    " destro": 8535,
    " destroy": 8536,
    " detail": 8537,
    " determination": 8538,
    " developments": 8539,
    " diox": 8540,
    " dioxide": 8541,
    " directors": 8542,
    " disast": 8543,
    " disrupt": 8544,
    " disasters": 8545,
    " discounts": 8546,
    " distribute": 8547,
    " door": 8548,
    " doos": 8549,
    " ease": 8550,
    " edit": 8551,
    " editorial": 8552,
    " eliminating": 8553,
    " emerged": 8554,
    " enz": 8555,
    " engines": 8556,
    " enhancing": 8557,
    " environmentally": 8558,
    " enzym": 8559,
    " equivalent": 8560,
    " era": 8561,
    " eros": 8562,
    " erosion": 8563,
    " estimate": 8564,
    " evacuation": 8565,
    " evolved": 8566,
    " evolving": 8567,
    " excess": 8568,
    " exams": 8569,
    " exhib": 8570,
    " fans": 8571,
    " fant": 8572,
    " fet": 8573,
    " failure": 8574,
    " familiar": 8575,
    " fees": 8576,
    " film": 8577,
    " finance": 8578,
    " flaw": 8579,
    " formats": 8580,
    " frequencies": 8581,
    " gaya": 8582,
    " gaye": 8583,
    " garden": 8584,
    " generates": 8585,
    " generalized": 8586,
    " gently": 8587,
    " ghar": 8588,
    " governments": 8589,
    " gratitude": 8590,
    " gradient": 8591,
    " guided": 8592,
    " guides": 8593,
    " guiding": 8594,
    " hit": 8595,
    " hue": 8596,
    " held": 8597,
    " headers": 8598,
    " herself": 8599,
    " hiking": 8600,
    " historic": 8601,
    " homot": 8602,
    " homework": 8603,
    " homotopy": 8604,
    " iconic": 8605,
    " immediate": 8606,
    " impress": 8607,
    " inqu": 8608,
    " increasingly": 8609,
    " innoc": 8610,
    " inputs": 8611,
    " instruments": 8612,
    " intrig": 8613,
    " integer": 8614,
    " integrity": 8615,
    " intentionally": 8616,
    " intimacy": 8617,
    " introspe": 8618,
    " introspection": 8619,
    " journal": 8620,
    " jobs": 8621,
    " kal": 8622,
    " khel": 8623,
    " kilomet": 8624,
    " kaun": 8625,
    " karoge": 8626,
    " keys": 8627,
    " keeping": 8628,
    " khana": 8629,
    " khar": 8630,
    " kiya": 8631,
    " kilometers": 8632,
    " kinetic": 8633,
    " la": 8634,
    " lands": 8635,
    " lon": 8636,
    " label": 8637,
    " lagega": 8638,
    " launch": 8639,
    " leaves": 8640,
    " literary": 8641,
    " login": 8642,
    " mach": 8643,
    " male": 8644,
    " manga": 8645,
    " million": 8646,
    " manufacture": 8647,
    " marked": 8648,
    " meant": 8649,
    " menu": 8650,
    " metric": 8651,
    " milega": 8652,
    " misinter": 8653,
    " misinterpret": 8654,
    " moon": 8655,
    " modular": 8656,
    " molecul": 8657,
    " molecules": 8658,
    " morph": 8659,
    " muscle": 8660,
    " narrow": 8661,
    " nuc": 8662,
    " navigating": 8663,
    " neut": 8664,
    " negation": 8665,
    " nervous": 8666,
    " noticed": 8667,
    " nucle": 8668,
    " numerical": 8669,
    " nutrient": 8670,
    " observers": 8671,
    " offered": 8672,
    " officers": 8673,
    " offici": 8674,
    " officiating": 8675,
    " organisms": 8676,
    " oversight": 8677,
    " pause": 8678,
    " piling": 8679,
    " pizz": 8680,
    " pushing": 8681,
    " pairs": 8682,
    " palindrome": 8683,
    " particles": 8684,
    " participants": 8685,
    " passive": 8686,
    " penal": 8687,
    " perfectly": 8688,
    " periods": 8689,
    " photographers": 8690,
    " picture": 8691,
    " pictures": 8692,
    " pizza": 8693,
    " poll": 8694,
    " portion": 8695,
    " presentation": 8696,
    " primarily": 8697,
    " priority": 8698,
    " private": 8699,
    " proportion": 8700,
    " prospectus": 8701,
    " proxy": 8702,
    " pulled": 8703,
    " qualified": 8704,
    " quantities": 8705,
    " rank": 8706,
    " rul": 8707,
    " raise": 8708,
    " reaching": 8709,
    " replac": 8710,
    " readers": 8711,
    " recall": 8712,
    " recognized": 8713,
    " recycle": 8714,
    " regions": 8715,
    " registered": 8716,
    " relates": 8717,
    " relaxation": 8718,
    " relaxing": 8719,
    " researchers": 8720,
    " resolver": 8721,
    " resonates": 8722,
    " responding": 8723,
    " rhyth": 8724,
    " ridic": 8725,
    " ridicul": 8726,
    " ridiculous": 8727,
    " sach": 8728,
    " sand": 8729,
    " says": 8730,
    " sci": 8731,
    " swe": 8732,
    " sale": 8733,
    " scenarios": 8734,
    " scraping": 8735,
    " sector": 8736,
    " segments": 8737,
    " severe": 8738,
    " seasons": 8739,
    " secretMessage": 8740,
    " seemed": 8741,
    " sensitivity": 8742,
    " separation": 8743,
    " serves": 8744,
    " sets": 8745,
    " settings": 8746,
    " shower": 8747,
    " shuru": 8748,
    " sheet": 8749,
    " shelter": 8750,
    " socio": 8751,
    " speeds": 8752,
    " spending": 8753,
    " speakers": 8754,
    " species": 8755,
    " split": 8756,
    " std": 8757,
    " strive": 8758,
    " statistical": 8759,
    " staying": 8760,
    " stormy": 8761,
    " structural": 8762,
    " subfunction": 8763,
    " subst": 8764,
    " sunset": 8765,
    " superhero": 8766,
    " supposed": 8767,
    " supplies": 8768,
    " supportive": 8769,
    " survival": 8770,
    " switching": 8771,
    " tied": 8772,
    " tired": 8773,
    " tro": 8774,
    " tags": 8775,
    " tailor": 8776,
    " talent": 8777,
    " talked": 8778,
    " targeted": 8779,
    " targets": 8780,
    " template": 8781,
    " temporary": 8782,
    " third": 8783,
    " thor": 8784,
    " theore": 8785,
    " thorough": 8786,
    " timely": 8787,
    " timest": 8788,
    " transferred": 8789,
    " transformer": 8790,
    " turned": 8791,
    " uncomfort": 8792,
    " uncomfortable": 8793,
    " unfold": 8794,
    " unseen": 8795,
    " venture": 8796,
    " valued": 8797,
    " vend": 8798,
    " venues": 8799,
    " verse": 8800,
    " wider": 8801,
    " wides": 8802,
    " wings": 8803,
    " wit": 8804,
    " wala": 8805,
    " warrior": 8806,
    " waters": 8807,
    " watching": 8808,
    " wheel": 8809,
    " widespread": 8810,
    " wisely": 8811,
    " worked": 8812,
    " workers": 8813,
    "'{": 8814,
    "():": 8815,
    "();": 8816,
    "-$": 8817,
    "05": 8818,
    "0000": 8819,
    "2000": 8820,
    "2023": 8821,
    "43": 8822,
    "45": 8823,
    "50s": 8824,
    "766": 8825,
    "81": 8826,
    "987654": 8827,
    ":<": 8828,
    "AM": 8829,
    "Access": 8830,
    "Act": 8831,
    "Address": 8832,
    "After": 8833,
    "Apne": 8834,
    "Apni": 8835,
    "Bday": 8836,
    "Best": 8837,
    "BdayG": 8838,
    "BdayGuru": 8839,
    "Before": 8840,
    "CE": 8841,
    "Coin": 8842,
    "Cost": 8843,
    "Creat": 8844,
    "Customer": 8845,
    "Cut": 8846,
    "Choose": 8847,
    "Collaboration": 8848,
    "Compar": 8849,
    "Comparison": 8850,
    "Deep": 8851,
    "Define": 8852,
    "Different": 8853,
    "Economic": 8854,
    "Employee": 8855,
    "Eng": 8856,
    "Find": 8857,
    "Fire": 8858,
    "Flow": 8859,
    "Focus": 8860,
    "Facilitator": 8861,
    "GC": 8862,
    "Gr": 8863,
    "Hope": 8864,
    "HappyBdayGuru": 8865,
    "Health": 8866,
    "IN": 8867,
    "Impact": 8868,
    "Initial": 8869,
    "Inter": 8870,
    "Jab": 8871,
    "Jo": 8872,
    "LA": 8873,
    "Language": 8874,
    "Line": 8875,
    "Loss": 8876,
    "Logistics": 8877,
    "Market": 8878,
    "More": 8879,
    "MBER": 8880,
    "NU": 8881,
    "NUMBER": 8882,
    "OI": 8883,
    "Opt": 8884,
    "Par": 8885,
    "Pins": 8886,
    "Positive": 8887,
    "Perfect": 8888,
    "Philosop": 8889,
    "RE": 8890,
    "RT": 8891,
    "Read": 8892,
    "Risk": 8893,
    "Rule": 8894,
    "SH": 8895,
    "SR": 8896,
    "Segment": 8897,
    "Sim": 8898,
    "Spe": 8899,
    "Sustain": 8900,
    "Startups": 8901,
    "Supp": 8902,
    "TR": 8903,
    "Target": 8904,
    "That": 8905,
    "Utility": 8906,
    "UtilityCoin": 8907,
    "Way": 8908,
    "With": 8909,
    "WayUtilityCoin": 8910,
    "Weight": 8911,
    "['": 8912,
    "_ai_": 8913,
    "_change": 8914,
    "_cloud": 8915,
    "_compar": 8916,
    "_qu": 8917,
    "_analy": 8918,
    "_and_": 8919,
    "_by_m": 8920,
    "_by_name": 8921,
    "_by_name_for_": 8922,
    "_categ": 8923,
    "_check": 8924,
    "_cities": 8925,
    "_city": 8926,
    "_categories": 8927,
    "_comparison": 8928,
    "_comparison_cloud": 8929,
    "_cont": 8930,
    "_countries": 8931,
    "_detection": 8932,
    "_file": 8933,
    "_flip": 8934,
    "_for_g": 8935,
    "_for_group": 8936,
    "_for_numbers": 8937,
    "_for_on": 8938,
    "_for_groupd": 8939,
    "_for_groupdocs": 8940,
    "_for_groupdocs_comparison_cloud": 8941,
    "_for_ste": 8942,
    "_for_steam": 8943,
    "_for_tok": 8944,
    "_id_for_f": 8945,
    "_ids": 8946,
    "_input": 8947,
    "_link": 8948,
    "_market": 8949,
    "_predictions": 8950,
    "_schedule": 8951,
    "_songs_for_billboard_api": 8952,
    "_stat": 8953,
    "_token": 8954,
    "ael": 8955,
    "assistant": 8956,
    "acra": 8957,
    "adata": 8958,
    "ager": 8959,
    "akers": 8960,
    "aki": 8961,
    "amam": 8962,
    "amps": 8963,
    "ancer": 8964,
    "ancestor": 8965,
    "ander": 8966,
    "aneous": 8967,
    "anews": 8968,
    "anta": 8969,
    "anty": 8970,
    "append": 8971,
    "arity": 8972,
    "arranty": 8973,
    "asa": 8974,
    "asures": 8975,
    "asticity": 8976,
    "atas": 8977,
    "ati": 8978,
    "atically": 8979,
    "available": 8980,
    "backs": 8981,
    "begin": 8982,
    "bet": 8983,
    "bets": 8984,
    "badan": 8985,
    "base_url": 8986,
    "beats": 8987,
    "bruary": 8988,
    "crypto": 8989,
    "cs": 8990,
    "ceptible": 8991,
    "chanted": 8992,
    "chedule": 8993,
    "chitecture": 8994,
    "clusivity": 8995,
    "coordin": 8996,
    "coin_flip": 8997,
    "conditions": 8998,
    "consuming": 8999,
    "curric": 9000,
    "dep": 9001,
    "dings": 9002,
    "direct": 9003,
    "eddings": 9004,
    "elry": 9005,
    "ellar": 9006,
    "emaphore": 9007,
    "ench": 9008,
    "eneous": 9009,
    "ensive": 9010,
    "erge": 9011,
    "ession": 9012,
    "ewelry": 9013,
    "exist": 9014,
    "fight": 9015,
    "front": 9016,
    "format": 9017,
    "gameBoard": 9018,
    "ggers": 9019,
    "global": 9020,
    "greg": 9021,
    "heere": 9022,
    "herent": 9023,
    "hesis": 9024,
    "history": 9025,
    "http": 9026,
    "iate": 9027,
    "iptic": 9028,
    "ia_news": 9029,
    "icial": 9030,
    "icians": 9031,
    "ield": 9032,
    "ietnam": 9033,
    "iff": 9034,
    "ifting": 9035,
    "iga": 9036,
    "ilter": 9037,
    "illy": 9038,
    "inf": 9039,
    "ipped": 9040,
    "irical": 9041,
    "isease": 9042,
    "istribut": 9043,
    "itors": 9044,
    "ivanews": 9045,
    "java": 9046,
    "ji": 9047,
    "lam": 9048,
    "love": 9049,
    "letic": 9050,
    "levue": 9051,
    "list_of": 9052,
    "ltimately": 9053,
    "mates": 9054,
    "mut": 9055,
    "myVariable": 9056,
    "ociety": 9057,
    "ocom": 9058,
    "ocument": 9059,
    "ocomplete": 9060,
    "odo": 9061,
    "ogeneous": 9062,
    "omes": 9063,
    "oning": 9064,
    "ony": 9065,
    "orris": 9066,
    "ornstars": 9067,
    "orship": 9068,
    "oshua": 9069,
    "othes": 9070,
    "otechnology": 9071,
    "oust": 9072,
    "ouston": 9073,
    "outines": 9074,
    "phe": 9075,
    "party": 9076,
    "peak": 9077,
    "plom": 9078,
    "postCode": 9079,
    "pped": 9080,
    "predictable": 9081,
    "println": 9082,
    "provoking": 9083,
    "quire": 9084,
    "rum": 9085,
    "ravel": 9086,
    "resco": 9087,
    "ried": 9088,
    "rient": 9089,
    "road": 9090,
    "robeats": 9091,
    "roph": 9092,
    "ronic": 9093,
    "ryv": 9094,
    "ryvna": 9095,
    "sel": 9096,
    "secutive": 9097,
    "sse": 9098,
    "state": 9099,
    "subset": 9100,
    "tered": 9101,
    "tor": 9102,
    "thew": 9103,
    "toon": 9104,
    "track": 9105,
    "uep": 9106,
    "uing": 9107,
    "uda": 9108,
    "ulu": 9109,
    "umb": 9110,
    "uros": 9111,
    "user_input": 9112,
    "ustin": 9113,
    "uxury": 9114,
    "ventional": 9115,
    "verter": 9116,
    "way_": 9117,
    "web": 9118,
    "width": 9119,
    "yo": 9120,
    "ynchron": 9121,
    "yson": 9122,
    "zone": 9123,
    "zz": 9124,
    "zip_code": 9125,
    "\n \n": 9126,
    "\n\n ": 9127,
    "\n \n ": 9128,
    " ?": 9129,
    " ell": 9130,
    " ign": 9131,
    " url": 9132,
    " 0x": 9133,
    " 17": 9134,
    " 197": 9135,
    " 23": 9136,
    " 36": 9137,
    " 6413": 9138,
    " 64139": 9139,
    " ASR": 9140,
    " Abra": 9141,
    " Average": 9142,
    " Az": 9143,
    " Abraham": 9144,
    " Airport": 9145,
    " Alab": 9146,
    " Allow": 9147,
    " Alabama": 9148,
    " Any": 9149,
    " Apps": 9150,
    " Assign": 9151,
    " Assum": 9152,
    " Association": 9153,
    " Atl": 9154,
    " Attention": 9155,
    " Available": 9156,
    " Battle": 9157,
    " Binance": 9158,
    " Body": 9159,
    " Boss": 9160,
    " Bund": 9161,
    " Begin": 9162,
    " Black": 9163,
    " Block": 9164,
    " Brands": 9165,
    " Cat": 9166,
    " Celebrate": 9167,
    " Cells": 9168,
    " Clean": 9169,
    " Cong": 9170,
    " Counc": 9171,
    " Crit": 9172,
    " Cybersecurity": 9173,
    " Choose": 9174,
    " Clust": 9175,
    " Clustering": 9176,
    " Commission": 9177,
    " Commun": 9178,
    " Community": 9179,
    " Conc": 9180,
    " Context": 9181,
    " Congress": 9182,
    " Council": 9183,
    " Creativity": 9184,
    " Daily": 9185,
    " Dais": 9186,
    " Day": 9187,
    " Diet": 9188,
    " Draw": 9189,
    " Dream": 9190,
    " Daisy": 9191,
    " Deep": 9192,
    " Decor": 9193,
    " Despite": 9194,
    " Determine": 9195,
    " Developing": 9196,
    " Does": 9197,
    " Every": 9198,
    " Emphas": 9199,
    " Enchanted": 9200,
    " Engine": 9201,
    " Entrepreneur": 9202,
    " Fact": 9203,
    " Finding": 9204,
    " Fly": 9205,
    " Follow": 9206,
    " Feature": 9207,
    " Features": 9208,
    " February": 9209,
    " Flyn": 9210,
    " Flynn": 9211,
    " France": 9212,
    " Gather": 9213,
    " German": 9214,
    " Git": 9215,
    " Growth": 9216,
    " Gustin": 9217,
    " Generate": 9218,
    " Government": 9219,
    " Greece": 9220,
    " Group": 9221,
    " Having": 9222,
    " Her": 9223,
    " Hold": 9224,
    " Hound": 9225,
    " Hinduism": 9226,
    " IQ": 9227,
    " Ibadan": 9228,
    " Ide": 9229,
    " Identifying": 9230,
    " Impact": 9231,
    " Invol": 9232,
    " Independence": 9233,
    " Infrastructure": 9234,
    " Informational": 9235,
    " Initialize": 9236,
    " International": 9237,
    " June": 9238,
    " Kag": 9239,
    " Kim": 9240,
    " Know": 9241,
    " Ko": 9242,
    " Karo": 9243,
    " Lat": 9244,
    " Limit": 9245,
    " Latin": 9246,
    " Mass": 9247,
    " Manager": 9248,
    " Measures": 9249,
    " Meet": 9250,
    " Modulation": 9251,
    " Modernist": 9252,
    " Moreover": 9253,
    " Multiverse": 9254,
    " Natural": 9255,
    " Nike": 9256,
    " Okay": 9257,
    " Often": 9258,
    " Office": 9259,
    " Okaz": 9260,
    " Okazaki": 9261,
    " PW": 9262,
    " Pay": 9263,
    " Pho": 9264,
    " Point": 9265,
    " Press": 9266,
    " Prom": 9267,
    " Purch": 9268,
    " PWAs": 9269,
    " Pacific": 9270,
    " Phoen": 9271,
    " Phoenix": 9272,
    " Photographers": 9273,
    " Portuguese": 9274,
    " Pran": 9275,
    " Pranam": 9276,
    " Rena": 9277,
    " Rest": 9278,
    " Rome": 9279,
    " Ruby": 9280,
    " Regular": 9281,
    " Relax": 9282,
    " Renaiss": 9283,
    " Renaissance": 9284,
    " Republic": 9285,
    " Resol": 9286,
    " Respond": 9287,
    " Retrieve": 9288,
    " SD": 9289,
    " Sat": 9290,
    " Sign": 9291,
    " Sm": 9292,
    " Small": 9293,
    " Soul": 9294,
    " South": 9295,
    " Sun": 9296,
    " Sur": 9297,
    " Sw": 9298,
    " SDK": 9299,
    " Short": 9300,
    " Sounds": 9301,
    " Stories": 9302,
    " Streng": 9303,
    " Style": 9304,
    " Starvation": 9305,
    " TAD": 9306,
    " TX": 9307,
    " Target": 9308,
    " Titania": 9309,
    " Todo": 9310,
    " Ty": 9311,
    " Tyson": 9312,
    " TVM": 9313,
    " TVMaze": 9314,
    " TensorFlow": 9315,
    " Testing": 9316,
    " Thai": 9317,
    " Toh": 9318,
    " Tools": 9319,
    " Todoist": 9320,
    " Tracking": 9321,
    " UUIDv3": 9322,
    " Universe": 9323,
    " VAT": 9324,
    " VerticalResponse": 9325,
    " Vis": 9326,
    " Vehicle": 9327,
    " Virginia": 9328,
    " Washington": 9329,
    " WiFi": 9330,
    " Wow": 9331,
    " Whether": 9332,
    " Zeus": 9333,
    " [[\"": 9334,
    " aest": 9335,
    " absor": 9336,
    " accused": 9337,
    " accomplishments": 9338,
    " achievable": 9339,
    " acquisition": 9340,
    " acting": 9341,
    " adopted": 9342,
    " advent": 9343,
    " affordability": 9344,
    " agricultural": 9345,
    " altering": 9346,
    " albums": 9347,
    " alien": 9348,
    " alignment": 9349,
    " amus": 9350,
    " amplified": 9351,
    " amusement": 9352,
    " ant": 9353,
    " api": 9354,
    " apolog": 9355,
    " arms": 9356,
    " arrange": 9357,
    " arranged": 9358,
    " asli": 9359,
    " asynchron": 9360,
    " assessments": 9361,
    " assistants": 9362,
    " associations": 9363,
    " asynchronous": 9364,
    " athletic": 9365,
    " attach": 9366,
    " attribut": 9367,
    " attending": 9368,
    " authorities": 9369,
    " automatically": 9370,
    " avatar": 9371,
    " baj": 9372,
    " bak": 9373,
    " bench": 9374,
    " bill": 9375,
    " billion": 9376,
    " bodies": 9377,
    " brows": 9378,
    " bachchon": 9379,
    " baje": 9380,
    " bandwidth": 9381,
    " barrier": 9382,
    " beaches": 9383,
    " beg": 9384,
    " bedrooms": 9385,
    " begins": 9386,
    " biased": 9387,
    " biotechnology": 9388,
    " bibliography": 9389,
    " birds": 9390,
    " birthd": 9391,
    " birthdays": 9392,
    " blind": 9393,
    " bottlenecks": 9394,
    " brave": 9395,
    " breathing": 9396,
    " breweries": 9397,
    " broker": 9398,
    " burden": 9399,
    " crow": 9400,
    " cues": 9401,
    " calendars": 9402,
    " camping": 9403,
    " captions": 9404,
    " carrier": 9405,
    " careg": 9406,
    " caregivers": 9407,
    " carrying": 9408,
    " causes": 9409,
    " celebrations": 9410,
    " centralized": 9411,
    " chair": 9412,
    " chatbots": 9413,
    " chee": 9414,
    " cheeze": 9415,
    " cheezein": 9416,
    " citiz": 9417,
    " click": 9418,
    " clim": 9419,
    " clothes": 9420,
    " cleanup": 9421,
    " coach": 9422,
    " cohes": 9423,
    " coastal": 9424,
    " collaborative": 9425,
    " comply": 9426,
    " committed": 9427,
    " compatible": 9428,
    " computers": 9429,
    " conclus": 9430,
    " consecutive": 9431,
    " conclusions": 9432,
    " concurrently": 9433,
    " confusion": 9434,
    " connectivity": 9435,
    " conserved": 9436,
    " consideration": 9437,
    " consumed": 9438,
    " contest": 9439,
    " contacts": 9440,
    " continuity": 9441,
    " contributing": 9442,
    " controlling": 9443,
    " convenient": 9444,
    " conversions": 9445,
    " cooperation": 9446,
    " corpora": 9447,
    " counsel": 9448,
    " crew": 9449,
    " cricket": 9450,
    " criticisms": 9451,
    " cycles": 9452,
    " dho": 9453,
    " dop": 9454,
    " databases": 9455,
    " deGra": 9456,
    " dear": 9457,
    " delete": 9458,
    " deGrasse": 9459,
    " decay": 9460,
    " decor": 9461,
    " decided": 9462,
    " default": 9463,
    " defines": 9464,
    " deli": 9465,
    " delicious": 9466,
    " delightful": 9467,
    " deserve": 9468,
    " designated": 9469,
    " dete": 9470,
    " determining": 9471,
    " diabetes": 9472,
    " dikh": 9473,
    " diplom": 9474,
    " dietary": 9475,
    " differently": 9476,
    " digits": 9477,
    " dimens": 9478,
    " diss": 9479,
    " discard": 9480,
    " distances": 9481,
    " distur": 9482,
    " disturb": 9483,
    " dogs": 9484,
    " doosre": 9485,
    " drink": 9486,
    " drama": 9487,
    " drawing": 9488,
    " dresses": 9489,
    " drown": 9490,
    " drowning": 9491,
    " earli": 9492,
    " earth": 9493,
    " ecosystems": 9494,
    " elliptic": 9495,
    " emerge": 9496,
    " embracing": 9497,
    " empirical": 9498,
    " empowering": 9499,
    " encompass": 9500,
    " encompasses": 9501,
    " enjoying": 9502,
    " enthusiasm": 9503,
    " entrepreneurship": 9504,
    " enzyme": 9505,
    " equipped": 9506,
    " equivalence": 9507,
    " estimated": 9508,
    " ethnic": 9509,
    " evenly": 9510,
    " exte": 9511,
    " executing": 9512,
    " explored": 9513,
    " expressed": 9514,
    " expressing": 9515,
    " fai": 9516,
    " fails": 9517,
    " father": 9518,
    " fats": 9519,
    " fert": 9520,
    " flying": 9521,
    " footprint": 9522,
    " furn": 9523,
    " fairies": 9524,
    " falling": 9525,
    " families": 9526,
    " fayde": 9527,
    " feed": 9528,
    " filling": 9529,
    " finally": 9530,
    " fires": 9531,
    " flash": 9532,
    " flip": 9533,
    " flowing": 9534,
    " followed": 9535,
    " former": 9536,
    " fosters": 9537,
    " fragment": 9538,
    " freedoms": 9539,
    " friendship": 9540,
    " frustrating": 9541,
    " functors": 9542,
    " functionality": 9543,
    " functioning": 9544,
    " gaps": 9545,
    " gases": 9546,
    " gems": 9547,
    " guil": 9548,
    " genres": 9549,
    " grab": 9550,
    " grain": 9551,
    " gradually": 9552,
    " gravit": 9553,
    " gravitational": 9554,
    " guest": 9555,
    " hockey": 9556,
    " hog": 9557,
    " hous": 9558,
    " habitat": 9559,
    " hash": 9560,
    " hashtag": 9561,
    " heat": 9562,
    " heads": 9563,
    " heroes": 9564,
    " hierarchy": 9565,
    " hisa": 9566,
    " hisaab": 9567,
    " histories": 9568,
    " hogi": 9569,
    " homeless": 9570,
    " honesty": 9571,
    " hopeful": 9572,
    " horiz": 9573,
    " hosting": 9574,
    " hyd": 9575,
    " ideapin": 9576,
    " identifies": 9577,
    " illustrate": 9578,
    " impul": 9579,
    " improved": 9580,
    " inbox": 9581,
    " inherent": 9582,
    " included": 9583,
    " incoming": 9584,
    " initialize": 9585,
    " injuries": 9586,
    " injury": 9587,
    " inspirational": 9588,
    " instability": 9589,
    " intr": 9590,
    " integrable": 9591,
    " intentions": 9592,
    " interacting": 9593,
    " interactive": 9594,
    " interpretation": 9595,
    " introvert": 9596,
    " je": 9597,
    " jaana": 9598,
    " join": 9599,
    " kids": 9600,
    " kn": 9601,
    " karke": 9602,
    " karunga": 9603,
    " karein": 9604,
    " keeps": 9605,
    " khaana": 9606,
    " khao": 9607,
    " kitna": 9608,
    " knows": 9609,
    " lap": 9610,
    " laz": 9611,
    " lena": 9612,
    " lene": 9613,
    " lose": 9614,
    " luxury": 9615,
    " leave": 9616,
    " legit": 9617,
    " legs": 9618,
    " legitimate": 9619,
    " lived": 9620,
    " lifestyle": 9621,
    " listings": 9622,
    " looks": 9623,
    " loose": 9624,
    " located": 9625,
    " logically": 9626,
    " losses": 9627,
    " lowest": 9628,
    " magn": 9629,
    " mant": 9630,
    " maps": 9631,
    " mimetic": 9632,
    " mining": 9633,
    " mission": 9634,
    " mobility": 9635,
    " museum": 9636,
    " mais": 9637,
    " magical": 9638,
    " maisons": 9639,
    " manual": 9640,
    " manufactured": 9641,
    " measurable": 9642,
    " medication": 9643,
    " medications": 9644,
    " meetup": 9645,
    " memorable": 9646,
    " merma": 9647,
    " mermaids": 9648,
    " messaging": 9649,
    " messy": 9650,
    " minim": 9651,
    " minds": 9652,
    " mostly": 9653,
    " muscles": 9654,
    " mythology": 9655,
    " nakli": 9656,
    " nations": 9657,
    " naye": 9658,
    " node": 9659,
    " narratives": 9660,
    " nationalist": 9661,
    " negat": 9662,
    " negotiate": 9663,
    " neighbors": 9664,
    " networking": 9665,
    " neurolog": 9666,
    " nonverbal": 9667,
    " notation": 9668,
    " numbers_translator": 9669,
    " oil": 9670,
    " occupy": 9671,
    " operate": 9672,
    " overhead": 9673,
    " overlook": 9674,
    " pest": 9675,
    " pick": 9676,
    " pit": 9677,
    " pose": 9678,
    " pun": 9679,
    " pageant": 9680,
    " papers": 9681,
    " paradox": 9682,
    " parties": 9683,
    " partners": 9684,
    " payment": 9685,
    " penalties": 9686,
    " perfection": 9687,
    " performed": 9688,
    " permutation": 9689,
    " persistent": 9690,
    " pharm": 9691,
    " phase": 9692,
    " phones": 9693,
    " phenko": 9694,
    " plate": 9695,
    " plent": 9696,
    " plot": 9697,
    " planet": 9698,
    " planting": 9699,
    " plenty": 9700,
    " poem": 9701,
    " police": 9702,
    " politics": 9703,
    " polymorphism": 9704,
    " portal": 9705,
    " possibility": 9706,
    " poster": 9707,
    " powers": 9708,
    " pride": 9709,
    " preconceptions": 9710,
    " prem": 9711,
    " predicted": 9712,
    " preparing": 9713,
    " printing": 9714,
    " proof": 9715,
    " prov": 9716,
    " prox": 9717,
    " promotion": 9718,
    " psychological": 9719,
    " psychiatry": 9720,
    " ritual": 9721,
    " ru": 9722,
    " raises": 9723,
    " rakho": 9724,
    " radiation": 9725,
    " rakhna": 9726,
    " reaction": 9727,
    " reject": 9728,
    " relying": 9729,
    " reun": 9730,
    " realm": 9731,
    " recip": 9732,
    " recipient": 9733,
    " redund": 9734,
    " redundancy": 9735,
    " reflecting": 9736,
    " regression": 9737,
    " rejected": 9738,
    " relational": 9739,
    " relations": 9740,
    " relief": 9741,
    " remark": 9742,
    " remo": 9743,
    " remaining": 9744,
    " remarkable": 9745,
    " reporting": 9746,
    " represented": 9747,
    " requesting": 9748,
    " resolve": 9749,
    " respecting": 9750,
    " retain": 9751,
    " retrieval": 9752,
    " reunion": 9753,
    " reviewing": 9754,
    " rhyme": 9755,
    " robots": 9756,
    " roll": 9757,
    " roof": 9758,
    " rocket": 9759,
    " six": 9760,
    " sne": 9761,
    " soph": 9762,
    " saare": 9763,
    " saf": 9764,
    " salt": 9765,
    " salvage": 9766,
    " satisfy": 9767,
    " savings": 9768,
    " saying": 9769,
    " scarc": 9770,
    " scared": 9771,
    " scary": 9772,
    " scene": 9773,
    " scr": 9774,
    " scalable": 9775,
    " scarcity": 9776,
    " scenario": 9777,
    " schedules": 9778,
    " seemingly": 9779,
    " selecting": 9780,
    " selfish": 9781,
    " sellers": 9782,
    " servings": 9783,
    " setbacks": 9784,
    " settle": 9785,
    " shaya": 9786,
    " shipping": 9787,
    " shayad": 9788,
    " shelters": 9789,
    " showcasing": 9790,
    " slides": 9791,
    " slideshow": 9792,
    " sneak": 9793,
    " socioeconomic": 9794,
    " solar": 9795,
    " solved": 9796,
    " spam": 9797,
    " spat": 9798,
    " spoken": 9799,
    " speaker": 9800,
    " specialize": 9801,
    " specialized": 9802,
    " strict": 9803,
    " startup": 9804,
    " stats": 9805,
    " stickers": 9806,
    " strange": 9807,
    " suff": 9808,
    " substring": 9809,
    " subjective": 9810,
    " subjects": 9811,
    " substance": 9812,
    " sugars": 9813,
    " supporting": 9814,
    " surfer": 9815,
    " surve": 9816,
    " surpassing": 9817,
    " surroundings": 9818,
    " susceptible": 9819,
    " swim": 9820,
    " symbols": 9821,
    " tapping": 9822,
    " tick": 9823,
    " ticker": 9824,
    " tid": 9825,
    " trie": 9826,
    " taki": 9827,
    " tea": 9828,
    " tha": 9829,
    " thick": 9830,
    " though": 9831,
    " theoretical": 9832,
    " thermodynam": 9833,
    " therapist": 9834,
    " thoughtfully": 9835,
    " thousands": 9836,
    " throughout": 9837,
    " toxic": 9838,
    " tran": 9839,
    " trouble": 9840,
    " traum": 9841,
    " tracking": 9842,
    " tranqu": 9843,
    " transition": 9844,
    " transforming": 9845,
    " translations": 9846,
    " trauma": 9847,
    " traveling": 9848,
    " trusted": 9849,
    " unable": 9850,
    " unbi": 9851,
    " unknown": 9852,
    " unko": 9853,
    " unpredictable": 9854,
    " unbiased": 9855,
    " unwind": 9856,
    " upload": 9857,
    " urgent": 9858,
    " vibr": 9859,
    " virtuous": 9860,
    " visually": 9861,
    " volat": 9862,
    " volunteer": 9863,
    " vulnerabilities": 9864,
    " walls": 9865,
    " wave": 9866,
    " waves": 9867,
    " wins": 9868,
    " wish": 9869,
    " wood": 9870,
    " waist": 9871,
    " warriors": 9872,
    " wear": 9873,
    " welcome": 9874,
    " whis": 9875,
    " whisk": 9876,
    " willingness": 9877,
    " windows": 9878,
    " worried": 9879,
    " wouldn": 9880,
    " zoom": 9881,
    "!'": 9882,
    "!\")": 9883,
    "\"]]": 9884,
    "($": 9885,
    "()`:": 9886,
    "--------": 9887,
    ".'": 9888,
    "0060": 9889,
    "178": 9890,
    "1c": 9891,
    "10x": 9892,
    "1200": 9893,
    "196": 9894,
    "199": 9895,
    "300": 9896,
    "37": 9897,
    "7128": 9898,
    "74": 9899,
    "80s": 9900,
    "95": 9901,
    "977": 9902,
    "9e": 9903,
    ">`:": 9904,
    "AO": 9905,
    "Ab": 9906,
    "Aur": 9907,
    "ABC": 9908,
    "Amazon": 9909,
    "Another": 9910,
    "Answer": 9911,
    "Assign": 9912,
    "BO": 9913,
    "Based": 9914,
    "Bat": 9915,
    "Bl": 9916,
    "Brand": 9917,
    "CF": 9918,
    "Casual": 9919,
    "Cs": 9920,
    "Cybersecurity": 9921,
    "Char": 9922,
    "Common": 9923,
    "Conduct": 9924,
    "Connect": 9925,
    "Conservation": 9926,
    "Continuous": 9927,
    "Contextual": 9928,
    "Correggio": 9929,
    "Disease": 9930,
    "Decent": 9931,
    "Decentralized": 9932,
    "EM": 9933,
    "Easy": 9934,
    "Echo": 9935,
    "Ek": 9936,
    "Ep": 9937,
    "Establish": 9938,
    "Fear": 9939,
    "Ge": 9940,
    "Go": 9941,
    "Geolocation": 9942,
    "Hybrid": 9943,
    "IA": 9944,
    "IT": 9945,
    "If": 9946,
    "Implement": 9947,
    "Incre": 9948,
    "Influence": 9949,
    "Indust": 9950,
    "Integ": 9951,
    "Jaise": 9952,
    "Join": 9953,
    "Jug": 9954,
    "Jugaad": 9955,
    "Kabhi": 9956,
    "Leg": 9957,
    "Limited": 9958,
    "MO": 9959,
    "Man": 9960,
    "Mental": 9961,
    "Netw": 9962,
    "Note": 9963,
    "OM": 9964,
    "OS": 9965,
    "Okay": 9966,
    "One": 9967,
    "OOCs": 9968,
    "Page": 9969,
    "Point": 9970,
    "Power": 9971,
    "Prepare": 9972,
    "Play": 9973,
    "Promote": 9974,
    "Rachel": 9975,
    "Rec": 9976,
    "Rel": 9977,
    "Rele": 9978,
    "Review": 9979,
    "Relevant": 9980,
    "Search": 9981,
    "Show": 9982,
    "TK": 9983,
    "TV": 9984,
    "Tem": 9985,
    "There": 9986,
    "Types": 9987,
    "Techn": 9988,
    "Transport": 9989,
    "UT": 9990,
    "VerticalResponse": 9991,
    "View": 9992,
    "Work": 9993,
    "Write": 9994,
    "Website": 9995,
    "[]": 9996,
    "]).": 9997,
    "_ad": 9998,
    "_book": 9999,
    "_com": 10000,
    "_comm": 10001,
    "_currency": 10002,
    "_h": 10003,
    "_nearby": 10004,
    "_online": 10005,
    "_quotes": 10006,
    "_type": 10007,
    "_version": 10008,
    "_a_": 10009,
    "_analysis": 10010,
    "_and_appointment": 10011,
    "_and_appointment_sched": 10012,
    "_and_appointment_scheduling": 10013,
    "_balance": 10014,
    "_bookings": 10015,
    "_bookings_and_appointment_scheduling": 10016,
    "_crypto": 10017,
    "_company_data_v2": 10018,
    "_doe": 10019,
    "_for_ha": 10020,
    "_for_w": 10021,
    "_for_chuck": 10022,
    "_for_chuck_n": 10023,
    "_for_chuck_norris": 10024,
    "_for_haut": 10025,
    "_for_hautec": 10026,
    "_for_hautecouture": 10027,
    "_for_hautecouture_api": 10028,
    "_for_mapt": 10029,
    "_for_maptiles": 10030,
    "_for_sup": 10031,
    "_for_supers": 10032,
    "_for_supersa": 10033,
[...]
